{
  "version": "1.0",
  "truncation": null,
  "padding": null,
  "added_tokens": [],
  "normalizer": null,
  "pre_tokenizer": {
    "type": "Whitespace"
  },
  "post_processor": null,
  "decoder": null,
  "model": {
    "type": "BPE",
    "dropout": null,
    "unk_token": "<unk>",
    "continuing_subword_prefix": null,
    "end_of_word_suffix": null,
    "fuse_unk": false,
    "byte_fallback": false,
    "ignore_merges": false,
    "vocab": {
      "!": 0,
      "\"": 1,
      "#": 2,
      "$": 3,
      "%": 4,
      "&": 5,
      "'": 6,
      "(": 7,
      ")": 8,
      "*": 9,
      "+": 10,
      ",": 11,
      "-": 12,
      ".": 13,
      "/": 14,
      "0": 15,
      "1": 16,
      "2": 17,
      "3": 18,
      "4": 19,
      "5": 20,
      "6": 21,
      "7": 22,
      "8": 23,
      "9": 24,
      ":": 25,
      ";": 26,
      "<": 27,
      "=": 28,
      ">": 29,
      "?": 30,
      "@": 31,
      "[": 32,
      "\\": 33,
      "]": 34,
      "^": 35,
      "_": 36,
      "`": 37,
      "a": 38,
      "b": 39,
      "c": 40,
      "d": 41,
      "e": 42,
      "f": 43,
      "g": 44,
      "h": 45,
      "i": 46,
      "j": 47,
      "k": 48,
      "l": 49,
      "m": 50,
      "n": 51,
      "o": 52,
      "p": 53,
      "q": 54,
      "r": 55,
      "s": 56,
      "t": 57,
      "u": 58,
      "v": 59,
      "w": 60,
      "x": 61,
      "y": 62,
      "z": 63,
      "{": 64,
      "|": 65,
      "}": 66,
      "~": 67,
      "¡": 68,
      "¢": 69,
      "£": 70,
      "¥": 71,
      "¦": 72,
      "§": 73,
      "¨": 74,
      "©": 75,
      "«": 76,
      "­": 77,
      "®": 78,
      "°": 79,
      "±": 80,
      "²": 81,
      "³": 82,
      "´": 83,
      "µ": 84,
      "¶": 85,
      "·": 86,
      "¹": 87,
      "º": 88,
      "»": 89,
      "¼": 90,
      "½": 91,
      "¿": 92,
      "×": 93,
      "ß": 94,
      "à": 95,
      "á": 96,
      "â": 97,
      "ã": 98,
      "ä": 99,
      "å": 100,
      "æ": 101,
      "ç": 102,
      "è": 103,
      "é": 104,
      "ê": 105,
      "ë": 106,
      "ì": 107,
      "í": 108,
      "î": 109,
      "ï": 110,
      "ð": 111,
      "ñ": 112,
      "ò": 113,
      "ó": 114,
      "ô": 115,
      "õ": 116,
      "ö": 117,
      "÷": 118,
      "ø": 119,
      "ù": 120,
      "ú": 121,
      "û": 122,
      "ü": 123,
      "ý": 124,
      "þ": 125,
      "ÿ": 126,
      "ā": 127,
      "ă": 128,
      "ą": 129,
      "ć": 130,
      "ĉ": 131,
      "č": 132,
      "ď": 133,
      "đ": 134,
      "ē": 135,
      "ĕ": 136,
      "ė": 137,
      "ę": 138,
      "ě": 139,
      "ĝ": 140,
      "ğ": 141,
      "ġ": 142,
      "ģ": 143,
      "ĥ": 144,
      "ħ": 145,
      "ĩ": 146,
      "ī": 147,
      "ĭ": 148,
      "į": 149,
      "ı": 150,
      "ķ": 151,
      "ļ": 152,
      "ľ": 153,
      "ł": 154,
      "ń": 155,
      "ņ": 156,
      "ň": 157,
      "ŋ": 158,
      "ō": 159,
      "ŏ": 160,
      "ő": 161,
      "œ": 162,
      "ř": 163,
      "ś": 164,
      "ŝ": 165,
      "ş": 166,
      "š": 167,
      "ţ": 168,
      "ť": 169,
      "ũ": 170,
      "ū": 171,
      "ŭ": 172,
      "ů": 173,
      "ű": 174,
      "ų": 175,
      "ź": 176,
      "ż": 177,
      "ž": 178,
      "ƒ": 179,
      "ơ": 180,
      "ƣ": 181,
      "ư": 182,
      "ǎ": 183,
      "ǐ": 184,
      "ǒ": 185,
      "ǔ": 186,
      "ǧ": 187,
      "ǫ": 188,
      "ș": 189,
      "ț": 190,
      "ȟ": 191,
      "ȧ": 192,
      "ɐ": 193,
      "ɑ": 194,
      "ɒ": 195,
      "ɔ": 196,
      "ɕ": 197,
      "ə": 198,
      "ɛ": 199,
      "ɡ": 200,
      "ɣ": 201,
      "ɨ": 202,
      "ɪ": 203,
      "ɬ": 204,
      "ɾ": 205,
      "ʁ": 206,
      "ʂ": 207,
      "ʃ": 208,
      "ʉ": 209,
      "ʊ": 210,
      "ʒ": 211,
      "ʔ": 212,
      "ʙ": 213,
      "ʰ": 214,
      "ʲ": 215,
      "ʷ": 216,
      "ʹ": 217,
      "ʻ": 218,
      "ʼ": 219,
      "ʾ": 220,
      "ʿ": 221,
      "ˁ": 222,
      "ˈ": 223,
      "ˌ": 224,
      "ː": 225,
      "̀": 226,
      "́": 227,
      "̂": 228,
      "̃": 229,
      "̄": 230,
      "̅": 231,
      "̇": 232,
      "̈": 233,
      "̌": 234,
      "̓": 235,
      "̗": 236,
      "̡": 237,
      "̣": 238,
      "̨": 239,
      "̯": 240,
      "̱": 241,
      "̲": 242,
      "͡": 243,
      "΄": 244,
      "ά": 245,
      "έ": 246,
      "ή": 247,
      "ί": 248,
      "α": 249,
      "β": 250,
      "γ": 251,
      "δ": 252,
      "ε": 253,
      "ζ": 254,
      "η": 255,
      "θ": 256,
      "ι": 257,
      "κ": 258,
      "λ": 259,
      "μ": 260,
      "ν": 261,
      "ξ": 262,
      "ο": 263,
      "π": 264,
      "ρ": 265,
      "ς": 266,
      "σ": 267,
      "τ": 268,
      "υ": 269,
      "φ": 270,
      "χ": 271,
      "ψ": 272,
      "ω": 273,
      "ϊ": 274,
      "ό": 275,
      "ύ": 276,
      "ώ": 277,
      "а": 278,
      "б": 279,
      "в": 280,
      "г": 281,
      "д": 282,
      "е": 283,
      "ж": 284,
      "з": 285,
      "и": 286,
      "й": 287,
      "к": 288,
      "л": 289,
      "м": 290,
      "н": 291,
      "о": 292,
      "п": 293,
      "р": 294,
      "с": 295,
      "т": 296,
      "у": 297,
      "ф": 298,
      "х": 299,
      "ц": 300,
      "ч": 301,
      "ш": 302,
      "щ": 303,
      "ъ": 304,
      "ы": 305,
      "ь": 306,
      "э": 307,
      "ю": 308,
      "я": 309,
      "ё": 310,
      "ђ": 311,
      "є": 312,
      "і": 313,
      "ї": 314,
      "ј": 315,
      "љ": 316,
      "њ": 317,
      "ћ": 318,
      "ў": 319,
      "џ": 320,
      "ѣ": 321,
      "ғ": 322,
      "ҙ": 323,
      "қ": 324,
      "ҡ": 325,
      "ң": 326,
      "ҫ": 327,
      "ү": 328,
      "ұ": 329,
      "ҳ": 330,
      "һ": 331,
      "ӏ": 332,
      "ә": 333,
      "ӧ": 334,
      "ө": 335,
      "ӷ": 336,
      "ա": 337,
      "բ": 338,
      "գ": 339,
      "դ": 340,
      "ե": 341,
      "զ": 342,
      "է": 343,
      "ը": 344,
      "թ": 345,
      "ժ": 346,
      "ի": 347,
      "լ": 348,
      "խ": 349,
      "ծ": 350,
      "կ": 351,
      "հ": 352,
      "ձ": 353,
      "ղ": 354,
      "ճ": 355,
      "մ": 356,
      "յ": 357,
      "ն": 358,
      "շ": 359,
      "ո": 360,
      "չ": 361,
      "պ": 362,
      "ջ": 363,
      "ռ": 364,
      "ս": 365,
      "վ": 366,
      "տ": 367,
      "ր": 368,
      "ց": 369,
      "ւ": 370,
      "փ": 371,
      "ք": 372,
      "օ": 373,
      "և": 374,
      "ְ": 375,
      "ִ": 376,
      "ֵ": 377,
      "ֶ": 378,
      "ַ": 379,
      "ָ": 380,
      "ֹ": 381,
      "ּ": 382,
      "ׁ": 383,
      "א": 384,
      "ב": 385,
      "ג": 386,
      "ד": 387,
      "ה": 388,
      "ו": 389,
      "ז": 390,
      "ח": 391,
      "ט": 392,
      "י": 393,
      "ך": 394,
      "כ": 395,
      "ל": 396,
      "ם": 397,
      "מ": 398,
      "ן": 399,
      "נ": 400,
      "ס": 401,
      "ע": 402,
      "פ": 403,
      "צ": 404,
      "ק": 405,
      "ר": 406,
      "ש": 407,
      "ת": 408,
      "،": 409,
      "ء": 410,
      "آ": 411,
      "أ": 412,
      "ؤ": 413,
      "إ": 414,
      "ئ": 415,
      "ا": 416,
      "ب": 417,
      "ة": 418,
      "ت": 419,
      "ث": 420,
      "ج": 421,
      "ح": 422,
      "خ": 423,
      "د": 424,
      "ذ": 425,
      "ر": 426,
      "ز": 427,
      "س": 428,
      "ش": 429,
      "ص": 430,
      "ض": 431,
      "ط": 432,
      "ظ": 433,
      "ع": 434,
      "غ": 435,
      "ـ": 436,
      "ف": 437,
      "ق": 438,
      "ك": 439,
      "ل": 440,
      "م": 441,
      "ن": 442,
      "ه": 443,
      "و": 444,
      "ى": 445,
      "ي": 446,
      "َ": 447,
      "ُ": 448,
      "ِ": 449,
      "ّ": 450,
      "ْ": 451,
      "٠": 452,
      "١": 453,
      "٢": 454,
      "٥": 455,
      "پ": 456,
      "چ": 457,
      "ژ": 458,
      "ک": 459,
      "ڭ": 460,
      "گ": 461,
      "ڵ": 462,
      "ھ": 463,
      "ہ": 464,
      "ۆ": 465,
      "ۇ": 466,
      "ی": 467,
      "ێ": 468,
      "ە": 469,
      "۱": 470,
      "ܐ": 471,
      "ܕ": 472,
      "ܘ": 473,
      "ܝ": 474,
      "ܡ": 475,
      "ܢ": 476,
      "ܪ": 477,
      "ܬ": 478,
      "ܵ": 479,
      "ं": 480,
      "क": 481,
      "ग": 482,
      "ज": 483,
      "ण": 484,
      "त": 485,
      "द": 486,
      "न": 487,
      "प": 488,
      "ब": 489,
      "भ": 490,
      "म": 491,
      "य": 492,
      "र": 493,
      "ल": 494,
      "व": 495,
      "श": 496,
      "स": 497,
      "ह": 498,
      "ा": 499,
      "ि": 500,
      "ी": 501,
      "ु": 502,
      "े": 503,
      "ो": 504,
      "्": 505,
      "ন": 506,
      "ব": 507,
      "ম": 508,
      "র": 509,
      "া": 510,
      "ি": 511,
      "ে": 512,
      "্": 513,
      "க": 514,
      "ப": 515,
      "ர": 516,
      "ா": 517,
      "ி": 518,
      "்": 519,
      "್": 520,
      "ර": 521,
      "්": 522,
      "ก": 523,
      "ค": 524,
      "ง": 525,
      "จ": 526,
      "ช": 527,
      "ด": 528,
      "ต": 529,
      "ท": 530,
      "น": 531,
      "บ": 532,
      "พ": 533,
      "ม": 534,
      "ย": 535,
      "ร": 536,
      "ล": 537,
      "ว": 538,
      "ส": 539,
      "ห": 540,
      "อ": 541,
      "ะ": 542,
      "ั": 543,
      "า": 544,
      "ิ": 545,
      "ี": 546,
      "ุ": 547,
      "เ": 548,
      "่": 549,
      "้": 550,
      "์": 551,
      "་": 552,
      "ာ": 553,
      "်": 554,
      "ა": 555,
      "ბ": 556,
      "გ": 557,
      "დ": 558,
      "ე": 559,
      "ვ": 560,
      "ზ": 561,
      "თ": 562,
      "ი": 563,
      "კ": 564,
      "ლ": 565,
      "მ": 566,
      "ნ": 567,
      "ო": 568,
      "პ": 569,
      "რ": 570,
      "ს": 571,
      "ტ": 572,
      "უ": 573,
      "ფ": 574,
      "ქ": 575,
      "ღ": 576,
      "ყ": 577,
      "შ": 578,
      "ჩ": 579,
      "ც": 580,
      "ძ": 581,
      "წ": 582,
      "ჭ": 583,
      "ხ": 584,
      "ჯ": 585,
      "ር": 586,
      "ት": 587,
      "ን": 588,
      "፡": 589,
      "ᐃ": 590,
      "ᐅ": 591,
      "ᐊ": 592,
      "ᑐ": 593,
      "ᑕ": 594,
      "ᑦ": 595,
      "ᒃ": 596,
      "ᓂ": 597,
      "ᓗ": 598,
      "ᔪ": 599,
      "ᕐ": 600,
      "ᖅ": 601,
      "រ": 602,
      "ា": 603,
      "្": 604,
      "ᴀ": 605,
      "ḋ": 606,
      "ḍ": 607,
      "ḏ": 608,
      "ḗ": 609,
      "ḡ": 610,
      "ḥ": 611,
      "ḫ": 612,
      "ḳ": 613,
      "ḵ": 614,
      "ḷ": 615,
      "ṃ": 616,
      "ṇ": 617,
      "ṓ": 618,
      "ṛ": 619,
      "ṡ": 620,
      "ṣ": 621,
      "ṫ": 622,
      "ṭ": 623,
      "ṯ": 624,
      "ẓ": 625,
      "ạ": 626,
      "ả": 627,
      "ấ": 628,
      "ầ": 629,
      "ậ": 630,
      "ắ": 631,
      "ế": 632,
      "ễ": 633,
      "ệ": 634,
      "ỉ": 635,
      "ị": 636,
      "ọ": 637,
      "ố": 638,
      "ồ": 639,
      "ộ": 640,
      "ớ": 641,
      "ứ": 642,
      "ự": 643,
      "ἀ": 644,
      "ἄ": 645,
      "ἐ": 646,
      "ἑ": 647,
      "ἔ": 648,
      "ἡ": 649,
      "ἰ": 650,
      "ἱ": 651,
      "ὀ": 652,
      "ὁ": 653,
      "ὐ": 654,
      "ὰ": 655,
      "ὴ": 656,
      "ὶ": 657,
      "ὸ": 658,
      "ῆ": 659,
      "ῖ": 660,
      "ῦ": 661,
      "ῶ": 662,
      "​": 663,
      "‌": 664,
      "‍": 665,
      "‎": 666,
      "‏": 667,
      "‐": 668,
      "‑": 669,
      "‒": 670,
      "–": 671,
      "—": 672,
      "―": 673,
      "‘": 674,
      "’": 675,
      "‚": 676,
      "“": 677,
      "”": 678,
      "„": 679,
      "‟": 680,
      "†": 681,
      "‡": 682,
      "•": 683,
      "…": 684,
      "‬": 685,
      "‭": 686,
      "‰": 687,
      "′": 688,
      "″": 689,
      "⁄": 690,
      "₂": 691,
      "€": 692,
      "₺": 693,
      "ℓ": 694,
      "№": 695,
      "™": 696,
      "←": 697,
      "↑": 698,
      "→": 699,
      "↔": 700,
      "⇒": 701,
      "∈": 702,
      "−": 703,
      "√": 704,
      "∞": 705,
      "∥": 706,
      "≈": 707,
      "≠": 708,
      "≡": 709,
      "≤": 710,
      "≥": 711,
      "⊕": 712,
      "⊙": 713,
      "⋅": 714,
      "─": 715,
      "│": 716,
      "└": 717,
      "├": 718,
      "█": 719,
      "○": 720,
      "●": 721,
      "★": 722,
      "☆": 723,
      "☉": 724,
      "♠": 725,
      "♥": 726,
      "♦": 727,
      "♭": 728,
      "♯": 729,
      "⟨": 730,
      "⟩": 731,
      "ⱨ": 732,
      "ⱪ": 733,
      "ⴰ": 734,
      "、": 735,
      "。": 736,
      "《": 737,
      "》": 738,
      "「": 739,
      "」": 740,
      "『": 741,
      "』": 742,
      "〜": 743,
      "あ": 744,
      "い": 745,
      "う": 746,
      "え": 747,
      "お": 748,
      "か": 749,
      "が": 750,
      "き": 751,
      "く": 752,
      "け": 753,
      "こ": 754,
      "さ": 755,
      "し": 756,
      "す": 757,
      "た": 758,
      "ち": 759,
      "っ": 760,
      "つ": 761,
      "て": 762,
      "で": 763,
      "と": 764,
      "な": 765,
      "に": 766,
      "の": 767,
      "は": 768,
      "び": 769,
      "ま": 770,
      "み": 771,
      "め": 772,
      "も": 773,
      "よ": 774,
      "ら": 775,
      "り": 776,
      "る": 777,
      "れ": 778,
      "を": 779,
      "ん": 780,
      "ァ": 781,
      "ア": 782,
      "ィ": 783,
      "イ": 784,
      "ウ": 785,
      "ェ": 786,
      "エ": 787,
      "オ": 788,
      "カ": 789,
      "ガ": 790,
      "キ": 791,
      "ク": 792,
      "グ": 793,
      "ケ": 794,
      "コ": 795,
      "サ": 796,
      "シ": 797,
      "ジ": 798,
      "ス": 799,
      "ズ": 800,
      "セ": 801,
      "ソ": 802,
      "タ": 803,
      "ダ": 804,
      "チ": 805,
      "ッ": 806,
      "ツ": 807,
      "テ": 808,
      "デ": 809,
      "ト": 810,
      "ド": 811,
      "ナ": 812,
      "ニ": 813,
      "ノ": 814,
      "ハ": 815,
      "バ": 816,
      "パ": 817,
      "ビ": 818,
      "フ": 819,
      "ブ": 820,
      "プ": 821,
      "ベ": 822,
      "ボ": 823,
      "マ": 824,
      "ミ": 825,
      "ム": 826,
      "メ": 827,
      "モ": 828,
      "ャ": 829,
      "ュ": 830,
      "ョ": 831,
      "ラ": 832,
      "リ": 833,
      "ル": 834,
      "レ": 835,
      "ロ": 836,
      "ン": 837,
      "・": 838,
      "ー": 839,
      "一": 840,
      "七": 841,
      "三": 842,
      "上": 843,
      "下": 844,
      "不": 845,
      "世": 846,
      "东": 847,
      "中": 848,
      "主": 849,
      "之": 850,
      "九": 851,
      "乡": 852,
      "事": 853,
      "二": 854,
      "于": 855,
      "五": 856,
      "井": 857,
      "京": 858,
      "人": 859,
      "仁": 860,
      "代": 861,
      "伊": 862,
      "会": 863,
      "保": 864,
      "信": 865,
      "元": 866,
      "光": 867,
      "克": 868,
      "党": 869,
      "全": 870,
      "八": 871,
      "公": 872,
      "六": 873,
      "共": 874,
      "兵": 875,
      "出": 876,
      "別": 877,
      "利": 878,
      "勒": 879,
      "化": 880,
      "北": 881,
      "区": 882,
      "區": 883,
      "十": 884,
      "千": 885,
      "华": 886,
      "南": 887,
      "博": 888,
      "原": 889,
      "县": 890,
      "口": 891,
      "古": 892,
      "可": 893,
      "台": 894,
      "史": 895,
      "号": 896,
      "司": 897,
      "合": 898,
      "吉": 899,
      "名": 900,
      "君": 901,
      "周": 902,
      "和": 903,
      "唐": 904,
      "單": 905,
      "四": 906,
      "回": 907,
      "国": 908,
      "國": 909,
      "土": 910,
      "地": 911,
      "城": 912,
      "場": 913,
      "塔": 914,
      "士": 915,
      "夏": 916,
      "夜": 917,
      "夢": 918,
      "大": 919,
      "天": 920,
      "太": 921,
      "夫": 922,
      "女": 923,
      "子": 924,
      "学": 925,
      "學": 926,
      "宁": 927,
      "安": 928,
      "宗": 929,
      "宮": 930,
      "家": 931,
      "富": 932,
      "寺": 933,
      "小": 934,
      "少": 935,
      "尔": 936,
      "居": 937,
      "山": 938,
      "岳": 939,
      "島": 940,
      "川": 941,
      "州": 942,
      "市": 943,
      "帝": 944,
      "師": 945,
      "平": 946,
      "年": 947,
      "府": 948,
      "建": 949,
      "式": 950,
      "張": 951,
      "後": 952,
      "德": 953,
      "心": 954,
      "忠": 955,
      "情": 956,
      "愛": 957,
      "成": 958,
      "我": 959,
      "戦": 960,
      "房": 961,
      "所": 962,
      "手": 963,
      "拉": 964,
      "政": 965,
      "教": 966,
      "文": 967,
      "斯": 968,
      "新": 969,
      "方": 970,
      "族": 971,
      "日": 972,
      "昌": 973,
      "明": 974,
      "星": 975,
      "春": 976,
      "時": 977,
      "書": 978,
      "月": 979,
      "有": 980,
      "朝": 981,
      "木": 982,
      "本": 983,
      "李": 984,
      "村": 985,
      "東": 986,
      "松": 987,
      "林": 988,
      "校": 989,
      "株": 990,
      "機": 991,
      "歌": 992,
      "正": 993,
      "武": 994,
      "氏": 995,
      "民": 996,
      "水": 997,
      "永": 998,
      "汗": 999,
      "江": 1000,
      "沙": 1001,
      "河": 1002,
      "治": 1003,
      "法": 1004,
      "洞": 1005,
      "流": 1006,
      "海": 1007,
      "清": 1008,
      "港": 1009,
      "湖": 1010,
      "源": 1011,
      "漢": 1012,
      "火": 1013,
      "版": 1014,
      "物": 1015,
      "特": 1016,
      "玉": 1017,
      "王": 1018,
      "理": 1019,
      "生": 1020,
      "田": 1021,
      "疆": 1022,
      "白": 1023,
      "百": 1024,
      "的": 1025,
      "皇": 1026,
      "真": 1027,
      "石": 1028,
      "研": 1029,
      "社": 1030,
      "神": 1031,
      "空": 1032,
      "立": 1033,
      "第": 1034,
      "縣": 1035,
      "羅": 1036,
      "美": 1037,
      "義": 1038,
      "者": 1039,
      "自": 1040,
      "花": 1041,
      "英": 1042,
      "茶": 1043,
      "草": 1044,
      "華": 1045,
      "藤": 1046,
      "行": 1047,
      "術": 1048,
      "衛": 1049,
      "西": 1050,
      "見": 1051,
      "記": 1052,
      "語": 1053,
      "護": 1054,
      "谷": 1055,
      "趙": 1056,
      "車": 1057,
      "軍": 1058,
      "通": 1059,
      "道": 1060,
      "那": 1061,
      "郎": 1062,
      "部": 1063,
      "都": 1064,
      "里": 1065,
      "野": 1066,
      "金": 1067,
      "镇": 1068,
      "長": 1069,
      "門": 1070,
      "阳": 1071,
      "阿": 1072,
      "院": 1073,
      "陵": 1074,
      "陸": 1075,
      "陽": 1076,
      "隊": 1077,
      "雄": 1078,
      "集": 1079,
      "青": 1080,
      "面": 1081,
      "風": 1082,
      "飛": 1083,
      "香": 1084,
      "馬": 1085,
      "马": 1086,
      "高": 1087,
      "鮮": 1088,
      "黃": 1089,
      "黄": 1090,
      "龍": 1091,
      "龙": 1092,
      "가": 1093,
      "강": 1094,
      "경": 1095,
      "고": 1096,
      "공": 1097,
      "구": 1098,
      "국": 1099,
      "군": 1100,
      "그": 1101,
      "금": 1102,
      "기": 1103,
      "김": 1104,
      "나": 1105,
      "남": 1106,
      "는": 1107,
      "니": 1108,
      "다": 1109,
      "당": 1110,
      "대": 1111,
      "도": 1112,
      "동": 1113,
      "드": 1114,
      "라": 1115,
      "랑": 1116,
      "로": 1117,
      "리": 1118,
      "마": 1119,
      "무": 1120,
      "문": 1121,
      "미": 1122,
      "민": 1123,
      "박": 1124,
      "배": 1125,
      "보": 1126,
      "부": 1127,
      "비": 1128,
      "사": 1129,
      "산": 1130,
      "상": 1131,
      "서": 1132,
      "선": 1133,
      "성": 1134,
      "세": 1135,
      "소": 1136,
      "수": 1137,
      "스": 1138,
      "시": 1139,
      "신": 1140,
      "씨": 1141,
      "아": 1142,
      "안": 1143,
      "어": 1144,
      "에": 1145,
      "여": 1146,
      "연": 1147,
      "영": 1148,
      "오": 1149,
      "왕": 1150,
      "요": 1151,
      "우": 1152,
      "원": 1153,
      "유": 1154,
      "은": 1155,
      "을": 1156,
      "음": 1157,
      "의": 1158,
      "이": 1159,
      "인": 1160,
      "일": 1161,
      "자": 1162,
      "장": 1163,
      "재": 1164,
      "전": 1165,
      "젓": 1166,
      "정": 1167,
      "제": 1168,
      "조": 1169,
      "주": 1170,
      "중": 1171,
      "지": 1172,
      "진": 1173,
      "차": 1174,
      "채": 1175,
      "천": 1176,
      "청": 1177,
      "최": 1178,
      "치": 1179,
      "타": 1180,
      "태": 1181,
      "터": 1182,
      "트": 1183,
      "하": 1184,
      "학": 1185,
      "한": 1186,
      "해": 1187,
      "현": 1188,
      "호": 1189,
      "화": 1190,
      "회": 1191,
      "희": 1192,
      "﻿": 1193,
      "（": 1194,
      "）": 1195,
      "，": 1196,
      "：": 1197,
      "～": 1198,
      "🏆": 1199,
      "ar": 1200,
      "an": 1201,
      "er": 1202,
      "in": 1203,
      "en": 1204,
      "al": 1205,
      "ın": 1206,
      "il": 1207,
      "ir": 1208,
      "da": 1209,
      "lar": 1210,
      "de": 1211,
      "ak": 1212,
      "ya": 1213,
      "ol": 1214,
      "el": 1215,
      "on": 1216,
      "et": 1217,
      "ve": 1218,
      "as": 1219,
      "un": 1220,
      "es": 1221,
      "is": 1222,
      "ler": 1223,
      "am": 1224,
      "ik": 1225,
      "ek": 1226,
      "ay": 1227,
      "or": 1228,
      "dı": 1229,
      "at": 1230,
      "bir": 1231,
      "ıl": 1232,
      "ur": 1233,
      "le": 1234,
      "ul": 1235,
      "ba": 1236,
      "di": 1237,
      "19": 1238,
      "im": 1239,
      "ür": 1240,
      "te": 1241,
      "ün": 1242,
      "20": 1243,
      "ır": 1244,
      "it": 1245,
      "ma": 1246,
      "şt": 1247,
      "ında": 1248,
      "iy": 1249,
      "lı": 1250,
      "la": 1251,
      "st": 1252,
      "li": 1253,
      "lan": 1254,
      "dan": 1255,
      "i̇": 1256,
      "ka": 1257,
      "ları": 1258,
      "sa": 1259,
      "ta": 1260,
      "den": 1261,
      "ki": 1262,
      "em": 1263,
      "ey": 1264,
      "ro": 1265,
      "us": 1266,
      "ra": 1267,
      "inde": 1268,
      "ha": 1269,
      "um": 1270,
      "iz": 1271,
      "ör": 1272,
      "ön": 1273,
      "yıl": 1274,
      "ara": 1275,
      "ine": 1276,
      "du": 1277,
      "leri": 1278,
      "ti": 1279,
      "üz": 1280,
      "ası": 1281,
      "dir": 1282,
      "ut": 1283,
      "iş": 1284,
      "bu": 1285,
      "iç": 1286,
      "dır": 1287,
      "ık": 1288,
      "esi": 1289,
      "ım": 1290,
      "eri": 1291,
      "ile": 1292,
      "son": 1293,
      "do": 1294,
      "ış": 1295,
      "ev": 1296,
      "ed": 1297,
      "ük": 1298,
      "ül": 1299,
      "cu": 1300,
      "man": 1301,
      "ilm": 1302,
      "baş": 1303,
      "ok": 1304,
      "tı": 1305,
      "lu": 1306,
      "oy": 1307,
      "larak": 1308,
      "=\"": 1309,
      "ini": 1310,
      "üm": 1311,
      "ce": 1312,
      "olarak": 1313,
      "ca": 1314,
      "öl": 1315,
      "ter": 1316,
      "kar": 1317,
      "ından": 1318,
      "os": 1319,
      "tür": 1320,
      "ğı": 1321,
      "ını": 1322,
      "yap": 1323,
      "ch": 1324,
      "om": 1325,
      "tan": 1326,
      "ez": 1327,
      "200": 1328,
      "kay": 1329,
      "bil": 1330,
      "op": 1331,
      "bul": 1332,
      "th": 1333,
      "sı": 1334,
      "ça": 1335,
      "bağ": 1336,
      "ver": 1337,
      "ına": 1338,
      "kı": 1339,
      "ali": 1340,
      "201": 1341,
      "inin": 1342,
      "par": 1343,
      "ği": 1344,
      "bol": 1345,
      "ge": 1346,
      "ne": 1347,
      "tar": 1348,
      "gör": 1349,
      "mak": 1350,
      "ştir": 1351,
      "alar": 1352,
      "isi": 1353,
      "lik": 1354,
      "uz": 1355,
      "az": 1356,
      "gel": 1357,
      "ken": 1358,
      "ci": 1359,
      "alı": 1360,
      "iler": 1361,
      "si": 1362,
      "için": 1363,
      "re": 1364,
      "öz": 1365,
      "se": 1366,
      "lam": 1367,
      "doğ": 1368,
      "ştır": 1369,
      "me": 1370,
      "gi": 1371,
      "mi": 1372,
      "san": 1373,
      "yer": 1374,
      "ru": 1375,
      "aş": 1376,
      "nak": 1377,
      "türk": 1378,
      "ih": 1379,
      "kur": 1380,
      "ad": 1381,
      "ri": 1382,
      "sp": 1383,
      "üy": 1384,
      "fut": 1385,
      "kaynak": 1386,
      "olan": 1387,
      "der": 1388,
      "futbol": 1389,
      "gen": 1390,
      "ist": 1391,
      "ının": 1392,
      "bi": 1393,
      "cı": 1394,
      "mı": 1395,
      "gn": 1396,
      "00": 1397,
      "ğu": 1398,
      "ot": 1399,
      "len": 1400,
      "yon": 1401,
      "mu": 1402,
      "ayı": 1403,
      "ran": 1404,
      "kon": 1405,
      "oldu": 1406,
      "ab": 1407,
      "tara": 1408,
      "yar": 1409,
      "mek": 1410,
      "taraf": 1411,
      "oyun": 1412,
      "kan": 1413,
      "hal": 1414,
      "kul": 1415,
      "eş": 1416,
      "199": 1417,
      "tak": 1418,
      "bel": 1419,
      "asında": 1420,
      "yan": 1421,
      "yılında": 1422,
      "hi": 1423,
      "kaynakça": 1424,
      "gün": 1425,
      "col": 1426,
      "align": 1427,
      "let": 1428,
      "olu": 1429,
      "tarih": 1430,
      "dış": 1431,
      "tarafından": 1432,
      "yaz": 1433,
      "öy": 1434,
      "film": 1435,
      "lık": 1436,
      "çık": 1437,
      "ck": 1438,
      "kad": 1439,
      "dü": 1440,
      "cak": 1441,
      "yen": 1442,
      "av": 1443,
      "dev": 1444,
      "18": 1445,
      "iye": 1446,
      "futbolcu": 1447,
      "erk": 1448,
      "),": 1449,
      "eler": 1450,
      "tek": 1451,
      "böl": 1452,
      "men": 1453,
      "ili": 1454,
      "tem": 1455,
      "nin": 1456,
      "ku": 1457,
      "bulun": 1458,
      "kal": 1459,
      "sonra": 1460,
      "ada": 1461,
      "ov": 1462,
      "yaş": 1463,
      "mar": 1464,
      "ger": 1465,
      "yla": 1466,
      "met": 1467,
      "the": 1468,
      "ap": 1469,
      "daha": 1470,
      "ması": 1471,
      "kat": 1472,
      "bağlan": 1473,
      "id": 1474,
      "oğ": 1475,
      "mıştır": 1476,
      "nın": 1477,
      "top": 1478,
      "alan": 1479,
      "ayr": 1480,
      "kullan": 1481,
      "pro": 1482,
      "tılar": 1483,
      "fa": 1484,
      "su": 1485,
      "geç": 1486,
      "198": 1487,
      "mil": 1488,
      "tadır": 1489,
      "cen": 1490,
      "dur": 1491,
      "har": 1492,
      "na": 1493,
      "üç": 1494,
      "dön": 1495,
      "inden": 1496,
      "han": 1497,
      "of": 1498,
      "sel": 1499,
      "sür": 1500,
      "|-": 1501,
      "yön": 1502,
      "şe": 1503,
      "ber": 1504,
      "unda": 1505,
      "ların": 1506,
      "amer": 1507,
      "mü": 1508,
      "var": 1509,
      "çok": 1510,
      "büy": 1511,
      "be": 1512,
      "||": 1513,
      "bağlantılar": 1514,
      "res": 1515,
      "ilk": 1516,
      "yay": 1517,
      "for": 1518,
      "bak": 1519,
      "ing": 1520,
      "ilen": 1521,
      "daki": 1522,
      "çek": 1523,
      "gö": 1524,
      "sal": 1525,
      "sır": 1526,
      "amerik": 1527,
      "yüz": 1528,
      "tr": 1529,
      "ye": 1530,
      "ama": 1531,
      "ft": 1532,
      "şar": 1533,
      "leş": 1534,
      "sav": 1535,
      "197": 1536,
      "üzer": 1537,
      "mas": 1538,
      "ayan": 1539,
      "unu": 1540,
      "büyük": 1541,
      "her": 1542,
      "bo": 1543,
      "i̇n": 1544,
      "ştur": 1545,
      "iyet": 1546,
      "pa": 1547,
      "ılan": 1548,
      "ise": 1549,
      "alt": 1550,
      "yat": 1551,
      "dün": 1552,
      "şeh": 1553,
      "center": 1554,
      "span": 1555,
      "ildi": 1556,
      "aman": 1557,
      "ren": 1558,
      "ser": 1559,
      "ğer": 1560,
      "fi": 1561,
      "futbolcuları": 1562,
      "takım": 1563,
      "iyle": 1564,
      "bar": 1565,
      "lü": 1566,
      "kr": 1567,
      "arasında": 1568,
      "umlu": 1569,
      "ah": 1570,
      "lo": 1571,
      "iyon": 1572,
      "tedir": 1573,
      "karş": 1574,
      "iştir": 1575,
      "maktadır": 1576,
      "dığı": 1577,
      "sit": 1578,
      "kaz": 1579,
      "196": 1580,
      "şarkı": 1581,
      "bağlı": 1582,
      "yak": 1583,
      "yor": 1584,
      "mış": 1585,
      "köy": 1586,
      "ko": 1587,
      "gil": 1588,
      "bat": 1589,
      "ulu": 1590,
      "dür": 1591,
      "olo": 1592,
      "mo": 1593,
      "çal": 1594,
      "tal": 1595,
      "bas": 1596,
      "yeni": 1597,
      "pi": 1598,
      "çi": 1599,
      "vi": 1600,
      "eli": 1601,
      "hip": 1602,
      "edi": 1603,
      "to": 1604,
      "tur": 1605,
      "gibi": 1606,
      "yas": 1607,
      "deki": 1608,
      "eleri": 1609,
      "usu": 1610,
      "bun": 1611,
      "fran": 1612,
      "devlet": 1613,
      "çe": 1614,
      "gu": 1615,
      "and": 1616,
      "bilir": 1617,
      "per": 1618,
      "van": 1619,
      "esine": 1620,
      "merk": 1621,
      "türkiye": 1622,
      "kom": 1623,
      "merkez": 1624,
      "gru": 1625,
      "nı": 1626,
      "und": 1627,
      "etti": 1628,
      "doğumlu": 1629,
      "iki": 1630,
      "adı": 1631,
      "sız": 1632,
      "veya": 1633,
      "ni": 1634,
      "istan": 1635,
      "eye": 1636,
      "can": 1637,
      "bur": 1638,
      "müz": 1639,
      "ayrı": 1640,
      "seç": 1641,
      "lerin": 1642,
      "zaman": 1643,
      "amp": 1644,
      "10": 1645,
      "ten": 1646,
      "dem": 1647,
      "miştir": 1648,
      "zı": 1649,
      "aları": 1650,
      "ladı": 1651,
      "yük": 1652,
      "kadar": 1653,
      "yle": 1654,
      "co": 1655,
      "dünya": 1656,
      "esinde": 1657,
      "dül": 1658,
      "çalış": 1659,
      "genel": 1660,
      "larında": 1661,
      "laş": 1662,
      "car": 1663,
      "i̇s": 1664,
      "savaş": 1665,
      "sek": 1666,
      "e9": 1667,
      "çı": 1668,
      "uy": 1669,
      "gro": 1670,
      "liği": 1671,
      "iver": 1672,
      "özel": 1673,
      "ılı": 1674,
      "sen": 1675,
      "ster": 1676,
      "üs": 1677,
      "ileri": 1678,
      "kor": 1679,
      "gir": 1680,
      "style": 1681,
      "arı": 1682,
      "dönem": 1683,
      "br": 1684,
      "stan": 1685,
      "üf": 1686,
      "part": 1687,
      "he": 1688,
      "asyon": 1689,
      "imi": 1690,
      "ard": 1691,
      "eti": 1692,
      "üt": 1693,
      "15": 1694,
      "ıldı": 1695,
      "sahip": 1696,
      "colspan": 1697,
      "17": 1698,
      "anı": 1699,
      "orta": 1700,
      "göre": 1701,
      "left": 1702,
      "af": 1703,
      "insan": 1704,
      "yet": 1705,
      "larda": 1706,
      "düz": 1707,
      "alb": 1708,
      "ödül": 1709,
      "lığı": 1710,
      "i̇ngil": 1711,
      "haz": 1712,
      "color": 1713,
      "ayrıca": 1714,
      "hak": 1715,
      "lem": 1716,
      "kara": 1717,
      "şi": 1718,
      "öğ": 1719,
      "tel": 1720,
      "back": 1721,
      "tam": 1722,
      "şu": 1723,
      "ati": 1724,
      "cek": 1725,
      "195": 1726,
      "birlik": 1727,
      "taş": 1728,
      "mektedir": 1729,
      "ram": 1730,
      "inci": 1731,
      "kazan": 1732,
      "yayın": 1733,
      "pol": 1734,
      "nüf": 1735,
      "oyuncu": 1736,
      "ground": 1737,
      "başkan": 1738,
      "kap": 1739,
      "194": 1740,
      "sağ": 1741,
      "art": 1742,
      "12": 1743,
      "değ": 1744,
      "16": 1745,
      "background": 1746,
      "ancak": 1747,
      "diğer": 1748,
      "fer": 1749,
      "şek": 1750,
      "tir": 1751,
      "yol": 1752,
      "ban": 1753,
      "diz": 1754,
      "görev": 1755,
      "eğ": 1756,
      "va": 1757,
      "albüm": 1758,
      "doğumlular": 1759,
      "lat": 1760,
      "ben": 1761,
      "ulus": 1762,
      "lara": 1763,
      "sez": 1764,
      "yönet": 1765,
      "maya": 1766,
      "kadın": 1767,
      "üniver": 1768,
      "ark": 1769,
      "ağ": 1770,
      "mal": 1771,
      "sayı": 1772,
      "alman": 1773,
      "düş": 1774,
      "mes": 1775,
      "oloj": 1776,
      "21": 1777,
      "raf": 1778,
      "uç": 1779,
      "rus": 1780,
      "kil": 1781,
      "ii": 1782,
      "po": 1783,
      "ho": 1784,
      "miş": 1785,
      "yüzyıl": 1786,
      "göster": 1787,
      "sis": 1788,
      "ana": 1789,
      "aynı": 1790,
      "say": 1791,
      "mad": 1792,
      "ga": 1793,
      "bölüm": 1794,
      "ğini": 1795,
      "ton": 1796,
      "ço": 1797,
      "karşı": 1798,
      "cum": 1799,
      ":#": 1800,
      "şehir": 1801,
      "sitesi": 1802,
      "olduğu": 1803,
      "yal": 1804,
      "kurul": 1805,
      "sezon": 1806,
      "i̇l": 1807,
      "muştur": 1808,
      "hur": 1809,
      "ede": 1810,
      "yi": 1811,
      "por": 1812,
      "fin": 1813,
      "kö": 1814,
      "larını": 1815,
      "edilm": 1816,
      "neden": 1817,
      "sil": 1818,
      "tör": 1819,
      "14": 1820,
      "i̇stan": 1821,
      "has": 1822,
      "alık": 1823,
      "i̇stanbul": 1824,
      "ket": 1825,
      "eski": 1826,
      "go": 1827,
      "birleş": 1828,
      "spor": 1829,
      "gal": 1830,
      "ülk": 1831,
      "cin": 1832,
      "hu": 1833,
      "eder": 1834,
      "cü": 1835,
      "arak": 1836,
      "mayı": 1837,
      "ph": 1838,
      "lerini": 1839,
      "rak": 1840,
      "dis": 1841,
      "so": 1842,
      "ğını": 1843,
      "yo": 1844,
      "ilç": 1845,
      "hat": 1846,
      "nde": 1847,
      "din": 1848,
      "belir": 1849,
      "13": 1850,
      "sanat": 1851,
      "enler": 1852,
      "ımı": 1853,
      "193": 1854,
      "kuz": 1855,
      "tarihinde": 1856,
      "şamp": 1857,
      "tor": 1858,
      "ünde": 1859,
      "ant": 1860,
      "şampiyon": 1861,
      "ans": 1862,
      "bulunan": 1863,
      "nda": 1864,
      "lis": 1865,
      "fak": 1866,
      "kit": 1867,
      "pr": 1868,
      "ven": 1869,
      "ip": 1870,
      "birlikte": 1871,
      "partisi": 1872,
      "ıt": 1873,
      "km": 1874,
      "gü": 1875,
      "cumhur": 1876,
      "mahal": 1877,
      "diği": 1878,
      "aç": 1879,
      "ika": 1880,
      "amerikalı": 1881,
      "e9e9": 1882,
      "larının": 1883,
      "ele": 1884,
      "ret": 1885,
      "avru": 1886,
      "tu": 1887,
      "etk": 1888,
      "açık": 1889,
      "gür": 1890,
      "gaz": 1891,
      "ştı": 1892,
      "ham": 1893,
      "bin": 1894,
      "bit": 1895,
      "22": 1896,
      "gerçek": 1897,
      "gan": 1898,
      "mill": 1899,
      "una": 1900,
      "i̇ngiliz": 1901,
      "dar": 1902,
      "maç": 1903,
      "no": 1904,
      "yaptı": 1905,
      "dik": 1906,
      "osman": 1907,
      "tes": 1908,
      "kol": 1909,
      "hem": 1910,
      "söz": 1911,
      "las": 1912,
      "üş": 1913,
      "önem": 1914,
      "wid": 1915,
      "aldı": 1916,
      "nik": 1917,
      "mer": 1918,
      "avrupa": 1919,
      "rol": 1920,
      "tır": 1921,
      "luk": 1922,
      "erkek": 1923,
      "width": 1924,
      "sin": 1925,
      "yı": 1926,
      "yüksek": 1927,
      "ker": 1928,
      "ef": 1929,
      "unun": 1930,
      "eyi": 1931,
      "deniz": 1932,
      "25": 1933,
      "lerde": 1934,
      "indeki": 1935,
      "iti": 1936,
      "düzen": 1937,
      "üst": 1938,
      "\"|": 1939,
      "güney": 1940,
      "tüm": 1941,
      "uyg": 1942,
      "eb": 1943,
      "malar": 1944,
      "kral": 1945,
      "hay": 1946,
      "bet": 1947,
      "birleşik": 1948,
      "olduğ": 1949,
      "gelen": 1950,
      "jo": 1951,
      "lin": 1952,
      "pe": 1953,
      "fes": 1954,
      "grup": 1955,
      "likle": 1956,
      "çev": 1957,
      "000": 1958,
      "mart": 1959,
      "bilin": 1960,
      "yarış": 1961,
      "del": 1962,
      "oluş": 1963,
      "lerinin": 1964,
      "içer": 1965,
      "nüfus": 1966,
      "sat": 1967,
      "nun": 1968,
      "gh": 1969,
      "ia": 1970,
      "dil": 1971,
      "mesi": 1972,
      "kır": 1973,
      "ılır": 1974,
      "23": 1975,
      "ust": 1976,
      "sor": 1977,
      "don": 1978,
      "amerika": 1979,
      "qu": 1980,
      "uk": 1981,
      "za": 1982,
      "bes": 1983,
      "bölg": 1984,
      "müzik": 1985,
      "11": 1986,
      "toplam": 1987,
      "list": 1988,
      "mez": 1989,
      "üniversitesi": 1990,
      "larına": 1991,
      "kuzey": 1992,
      "lerinde": 1993,
      "mon": 1994,
      "kiş": 1995,
      "bazı": 1996,
      "faz": 1997,
      "sun": 1998,
      "siz": 1999,
      "arası": 2000,
      "2010": 2001,
      "30": 2002,
      "min": 2003,
      "ic": 2004,
      "şekil": 2005,
      "val": 2006,
      "mat": 2007,
      "bilim": 2008,
      "fark": 2009,
      "ator": 2010,
      "ec": 2011,
      "ünü": 2012,
      "bay": 2013,
      "oğlu": 2014,
      "oluştur": 2015,
      "ıs": 2016,
      "nis": 2017,
      "sam": 2018,
      "og": 2019,
      "adlı": 2020,
      "uş": 2021,
      "leştir": 2022,
      "öğren": 2023,
      "lanan": 2024,
      "önce": 2025,
      "halk": 2026,
      "eğit": 2027,
      "aşa": 2028,
      "eşit": 2029,
      "tas": 2030,
      "kası": 2031,
      "yu": 2032,
      "vet": 2033,
      "osmanlı": 2034,
      "hen": 2035,
      "siyon": 2036,
      "şir": 2037,
      "cel": 2038,
      "landır": 2039,
      "iyor": 2040,
      "cumhuriyet": 2041,
      "yaşayan": 2042,
      "başladı": 2043,
      "önemli": 2044,
      "hük": 2045,
      "öyle": 2046,
      "çocu": 2047,
      "ord": 2048,
      "iyi": 2049,
      "gar": 2050,
      "gerek": 2051,
      "pl": 2052,
      "landı": 2053,
      "şa": 2054,
      "bal": 2055,
      "det": 2056,
      "get": 2057,
      "ilg": 2058,
      "ilik": 2059,
      "ses": 2060,
      "24": 2061,
      "üret": 2062,
      "sar": 2063,
      "harek": 2064,
      "..": 2065,
      "ation": 2066,
      "eden": 2067,
      "ılık": 2068,
      "millî": 2069,
      "biri": 2070,
      "hil": 2071,
      "bey": 2072,
      "üp": 2073,
      "abilir": 2074,
      ").": 2075,
      "roman": 2076,
      "futbolcular": 2077,
      "tamam": 2078,
      "liğ": 2079,
      "lendir": 2080,
      "beledi": 2081,
      "yalı": 2082,
      "göz": 2083,
      "lere": 2084,
      "ılmıştır": 2085,
      "ekim": 2086,
      "kaç": 2087,
      "alet": 2088,
      "des": 2089,
      "yazar": 2090,
      "dağ": 2091,
      "ıştır": 2092,
      "hr": 2093,
      "com": 2094,
      "hn": 2095,
      "ödülü": 2096,
      "durum": 2097,
      "atik": 2098,
      "kes": 2099,
      "ilçesine": 2100,
      "yapılan": 2101,
      "yardı": 2102,
      "uzun": 2103,
      "sev": 2104,
      "gram": 2105,
      "ina": 2106,
      "ilir": 2107,
      "dol": 2108,
      "abd": 2109,
      "bg": 2110,
      "lardan": 2111,
      "onom": 2112,
      "küç": 2113,
      "i̇tal": 2114,
      "ac": 2115,
      "kül": 2116,
      "parator": 2117,
      "kariy": 2118,
      "muz": 2119,
      "ındaki": 2120,
      "şekilde": 2121,
      "bgcolor": 2122,
      "yun": 2123,
      "dav": 2124,
      "luğu": 2125,
      "yapı": 2126,
      "iran": 2127,
      "erek": 2128,
      "filmler": 2129,
      "süre": 2130,
      "değiş": 2131,
      "2008": 2132,
      "insanlar": 2133,
      "sine": 2134,
      "dal": 2135,
      "mayıs": 2136,
      "tik": 2137,
      "lül": 2138,
      "2012": 2139,
      "ocak": 2140,
      "birçok": 2141,
      "kim": 2142,
      "final": 2143,
      "28": 2144,
      "sch": 2145,
      "2009": 2146,
      "ilmiştir": 2147,
      "sh": 2148,
      "kem": 2149,
      "üzere": 2150,
      "küçük": 2151,
      "kız": 2152,
      "net": 2153,
      "ff": 2154,
      "doğu": 2155,
      "kas": 2156,
      "devam": 2157,
      "olduğunu": 2158,
      "tah": 2159,
      "tut": 2160,
      "ent": 2161,
      "od": 2162,
      "lerine": 2163,
      "med": 2164,
      "mem": 2165,
      "yaşam": 2166,
      "2011": 2167,
      "tarihi": 2168,
      "olmak": 2169,
      "üzerine": 2170,
      "larından": 2171,
      "oyn": 2172,
      "con": 2173,
      "anlam": 2174,
      "nor": 2175,
      "sos": 2176,
      "new": 2177,
      "2007": 2178,
      "getir": 2179,
      "kup": 2180,
      "vil": 2181,
      "ori": 2182,
      "eylül": 2183,
      "dör": 2184,
      "kasım": 2185,
      "fransız": 2186,
      "ınır": 2187,
      "2000": 2188,
      "lig": 2189,
      "kabul": 2190,
      "sonuç": 2191,
      "güç": 2192,
      "fe": 2193,
      "ardından": 2194,
      "çeşit": 2195,
      "içinde": 2196,
      "tü": 2197,
      "isim": 2198,
      "savaşı": 2199,
      "yardım": 2200,
      "uygul": 2201,
      "parti": 2202,
      "lığ": 2203,
      "haziran": 2204,
      "ız": 2205,
      "2006": 2206,
      "uluslar": 2207,
      "i̇m": 2208,
      "dae": 2209,
      "seçim": 2210,
      "bah": 2211,
      "ölüm": 2212,
      "tra": 2213,
      "edildi": 2214,
      "karak": 2215,
      "eviz": 2216,
      "aralık": 2217,
      "meye": 2218,
      "sk": 2219,
      "çıkar": 2220,
      "26": 2221,
      "bor": 2222,
      "lama": 2223,
      "iliş": 2224,
      "nes": 2225,
      "git": 2226,
      "muş": 2227,
      "yaklaş": 2228,
      "kez": 2229,
      "gol": 2230,
      "les": 2231,
      "çiler": 2232,
      "sistem": 2233,
      "aka": 2234,
      "sü": 2235,
      "arka": 2236,
      "oğraf": 2237,
      "onya": 2238,
      "lerinden": 2239,
      "devletleri": 2240,
      "siyas": 2241,
      "uzak": 2242,
      "fazla": 2243,
      "eğitim": 2244,
      "temmuz": 2245,
      "mey": 2246,
      "nisan": 2247,
      "bunun": 2248,
      "bakan": 2249,
      "sur": 2250,
      "amil": 2251,
      "daş": 2252,
      "vardır": 2253,
      "hol": 2254,
      "çocuk": 2255,
      "itibar": 2256,
      "masına": 2257,
      "i̇lk": 2258,
      "ağu": 2259,
      "gur": 2260,
      "alın": 2261,
      "pat": 2262,
      "jap": 2263,
      "ğü": 2264,
      "stos": 2265,
      "siyaset": 2266,
      "beş": 2267,
      "ucu": 2268,
      "27": 2269,
      "olmuştur": 2270,
      "sını": 2271,
      "ağustos": 2272,
      "ölenler": 2273,
      "rek": 2274,
      "2014": 2275,
      "ry": 2276,
      "ılmış": 2277,
      "üne": 2278,
      "ste": 2279,
      "teknik": 2280,
      "doğru": 2281,
      "topl": 2282,
      "2013": 2283,
      "zor": 2284,
      "ly": 2285,
      "kel": 2286,
      "millet": 2287,
      "takımı": 2288,
      "elik": 2289,
      "kendi": 2290,
      "lük": 2291,
      "onu": 2292,
      "eser": 2293,
      "siya": 2294,
      "ire": 2295,
      "evizyon": 2296,
      "kend": 2297,
      "ps": 2298,
      "sayısı": 2299,
      "geri": 2300,
      "gı": 2301,
      "2005": 2302,
      "yakın": 2303,
      "plan": 2304,
      "çin": 2305,
      "hiz": 2306,
      "araştır": 2307,
      "kent": 2308,
      "pet": 2309,
      "2015": 2310,
      "rı": 2311,
      "uluslararası": 2312,
      "fransa": 2313,
      "ikinci": 2314,
      "atan": 2315,
      "kü": 2316,
      "bek": 2317,
      "edilen": 2318,
      "elek": 2319,
      "farklı": 2320,
      "layan": 2321,
      "mir": 2322,
      "kültür": 2323,
      "program": 2324,
      "televizyon": 2325,
      "tiyat": 2326,
      "bile": 2327,
      "kupası": 2328,
      "hareket": 2329,
      "birliği": 2330,
      "=\"#": 2331,
      "yum": 2332,
      "kısa": 2333,
      "kıs": 2334,
      "pan": 2335,
      "cer": 2336,
      "genç": 2337,
      "aday": 2338,
      "başkanı": 2339,
      "tiyatro": 2340,
      "asker": 2341,
      "wil": 2342,
      "acak": 2343,
      "2016": 2344,
      "bilg": 2345,
      "enin": 2346,
      "mahalle": 2347,
      "kin": 2348,
      "şubat": 2349,
      "2004": 2350,
      "sim": 2351,
      "batı": 2352,
      "famil": 2353,
      "çağ": 2354,
      "sırasında": 2355,
      "ankara": 2356,
      "ener": 2357,
      "yıldı": 2358,
      "ep": 2359,
      "mam": 2360,
      "sc": 2361,
      "boyun": 2362,
      "katıl": 2363,
      "isinde": 2364,
      "almanya": 2365,
      "şti": 2366,
      "yarı": 2367,
      "esinin": 2368,
      "land": 2369,
      "şehr": 2370,
      "yunan": 2371,
      "filmleri": 2372,
      "rat": 2373,
      "sınır": 2374,
      "dest": 2375,
      "geliştir": 2376,
      "pu": 2377,
      "kişi": 2378,
      "üzerinde": 2379,
      "geçir": 2380,
      "şirket": 2381,
      "merkezi": 2382,
      "29": 2383,
      "oloji": 2384,
      "görün": 2385,
      "lon": 2386,
      "alya": 2387,
      "gem": 2388,
      "sem": 2389,
      "kurulu": 2390,
      "i̇mparator": 2391,
      "ünün": 2392,
      "lak": 2393,
      "ilgili": 2394,
      "gin": 2395,
      "ova": 2396,
      "ektedir": 2397,
      "lim": 2398,
      "sta": 2399,
      "ilmiş": 2400,
      "saldır": 2401,
      "kuv": 2402,
      "2020": 2403,
      "ştür": 2404,
      "50": 2405,
      "dr": 2406,
      "cam": 2407,
      "maları": 2408,
      "ulusal": 2409,
      "yeniden": 2410,
      "sosyal": 2411,
      "hakk": 2412,
      "maz": 2413,
      "hayvan": 2414,
      "ınız": 2415,
      "sade": 2416,
      "duğu": 2417,
      "çeşitli": 2418,
      "boy": 2419,
      "zi": 2420,
      "hizmet": 2421,
      "mit": 2422,
      "e9e9e9": 2423,
      "onun": 2424,
      "vide": 2425,
      "ja": 2426,
      "düşün": 2427,
      "ast": 2428,
      "def": 2429,
      "uc": 2430,
      "chi": 2431,
      "değer": 2432,
      "ley": 2433,
      "altı": 2434,
      "sol": 2435,
      "2018": 2436,
      "rar": 2437,
      "üsü": 2438,
      "yerleş": 2439,
      "fik": 2440,
      "altın": 2441,
      "olim": 2442,
      "2017": 2443,
      "bakınız": 2444,
      "benz": 2445,
      "ime": 2446,
      "yapım": 2447,
      "tanım": 2448,
      "gazet": 2449,
      "kitap": 2450,
      "ner": 2451,
      "190": 2452,
      "tay": 2453,
      "yok": 2454,
      "masını": 2455,
      "ex": 2456,
      "lenen": 2457,
      "nedeniyle": 2458,
      "avust": 2459,
      "kurulan": 2460,
      "ortaya": 2461,
      "kür": 2462,
      "karar": 2463,
      "sak": 2464,
      "ris": 2465,
      "gön": 2466,
      "parç": 2467,
      "temel": 2468,
      "fil": 2469,
      "mah": 2470,
      "ke": 2471,
      "we": 2472,
      "sadece": 2473,
      "yılı": 2474,
      "kullanıl": 2475,
      "yaklaşık": 2476,
      "je": 2477,
      "ji": 2478,
      "görül": 2479,
      "başarı": 2480,
      "leme": 2481,
      "oğun": 2482,
      "destek": 2483,
      "sov": 2484,
      "2002": 2485,
      "hava": 2486,
      "rusya": 2487,
      "mev": 2488,
      "geliş": 2489,
      "olup": 2490,
      "dört": 2491,
      "rad": 2492,
      "olimpi": 2493,
      "izm": 2494,
      "kuvvet": 2495,
      "lerden": 2496,
      "karakter": 2497,
      "eme": 2498,
      "ari": 2499,
      "i̇span": 2500,
      "yılları": 2501,
      "pop": 2502,
      "mik": 2503,
      "gurbet": 2504,
      "ght": 2505,
      "bağım": 2506,
      "yordu": 2507,
      "ümüz": 2508,
      "2019": 2509,
      "ilinin": 2510,
      "nu": 2511,
      "sanatçı": 2512,
      "konu": 2513,
      "oyunları": 2514,
      "dık": 2515,
      "sul": 2516,
      "inc": 2517,
      "kut": 2518,
      "bab": 2519,
      "dok": 2520,
      "boyunca": 2521,
      "ekonom": 2522,
      "ektör": 2523,
      "isyon": 2524,
      "ilerin": 2525,
      "2003": 2526,
      "john": 2527,
      "öğret": 2528,
      "hayat": 2529,
      "larla": 2530,
      "olimpiyat": 2531,
      "yönetmen": 2532,
      "yayım": 2533,
      "profes": 2534,
      "esini": 2535,
      "ıcı": 2536,
      "asıl": 2537,
      "vol": 2538,
      "resmi": 2539,
      "olay": 2540,
      "ordu": 2541,
      "şarkıcı": 2542,
      "mor": 2543,
      "tran": 2544,
      "mayan": 2545,
      "üc": 2546,
      "beri": 2547,
      "ğin": 2548,
      "bulunmaktadır": 2549,
      "red": 2550,
      "paris": 2551,
      "zamanda": 2552,
      "tere": 2553,
      "günümüz": 2554,
      "i̇yi": 2555,
      "ona": 2556,
      "dak": 2557,
      "demir": 2558,
      "tin": 2559,
      "tasar": 2560,
      "geniş": 2561,
      "genellikle": 2562,
      "sovyet": 2563,
      "eur": 2564,
      "ros": 2565,
      "güven": 2566,
      "dahil": 2567,
      "2001": 2568,
      "anan": 2569,
      "int": 2570,
      "gr": 2571,
      "video": 2572,
      "one": 2573,
      "ölç": 2574,
      "bölge": 2575,
      "rağ": 2576,
      "cha": 2577,
      "my": 2578,
      "luğ": 2579,
      "usunda": 2580,
      "ilişk": 2581,
      "temsil": 2582,
      "inter": 2583,
      "duy": 2584,
      "edilmiştir": 2585,
      "sık": 2586,
      "dra": 2587,
      "au": 2588,
      "dizi": 2589,
      "öldür": 2590,
      "\",": 2591,
      "kuş": 2592,
      "listesi": 2593,
      "gue": 2594,
      "bır": 2595,
      "web": 2596,
      "okul": 2597,
      "gor": 2598,
      "hazır": 2599,
      "fo": 2600,
      "karde": 2601,
      "i̇z": 2602,
      "hız": 2603,
      "bağımsız": 2604,
      "i̇ngiltere": 2605,
      "tv": 2606,
      "hükû": 2607,
      "fc": 2608,
      "olma": 2609,
      "biy": 2610,
      "1990": 2611,
      "roma": 2612,
      "hükûmet": 2613,
      "paşa": 2614,
      "sınıf": 2615,
      "altında": 2616,
      "iste": 2617,
      "coğraf": 2618,
      "yüzyılda": 2619,
      "basket": 2620,
      "yönetim": 2621,
      "yüksel": 2622,
      "arap": 2623,
      "189": 2624,
      "tion": 2625,
      "tif": 2626,
      "amerikan": 2627,
      "pek": 2628,
      "zen": 2629,
      "yasa": 2630,
      "ait": 2631,
      "özellikle": 2632,
      "grubu": 2633,
      "40": 2634,
      "yür": 2635,
      "yerine": 2636,
      "değil": 2637,
      "sey": 2638,
      "nüfusu": 2639,
      "ail": 2640,
      "başar": 2641,
      "bırak": 2642,
      "merkezine": 2643,
      "1999": 2644,
      "ty": 2645,
      "sonr": 2646,
      "lor": 2647,
      "müştür": 2648,
      "yaptığı": 2649,
      "cumhuriyeti": 2650,
      "mec": 2651,
      "pen": 2652,
      "cal": 2653,
      "kazandı": 2654,
      "mm": 2655,
      "aktadır": 2656,
      "ulaş": 2657,
      "evi": 2658,
      "iydi": 2659,
      "deği": 2660,
      "komut": 2661,
      "form": 2662,
      "ünden": 2663,
      "osu": 2664,
      "kendis": 2665,
      "afr": 2666,
      "veç": 2667,
      "geler": 2668,
      "gın": 2669,
      "kav": 2670,
      "hane": 2671,
      "madde": 2672,
      "karşıl": 2673,
      "dy": 2674,
      "60": 2675,
      "asına": 2676,
      "coğrafya": 2677,
      "demok": 2678,
      "elen": 2679,
      "aj": 2680,
      "direktör": 2681,
      "i̇k": 2682,
      "polit": 2683,
      "çalı": 2684,
      "trol": 2685,
      "milletve": 2686,
      "keş": 2687,
      "ğında": 2688,
      "ettiği": 2689,
      "mut": 2690,
      "başka": 2691,
      "şey": 2692,
      "100": 2693,
      "oper": 2694,
      "ae": 2695,
      "i̇ngilizce": 2696,
      "fakat": 2697,
      "i̇talya": 2698,
      "kulüp": 2699,
      "anlaş": 2700,
      "ze": 2701,
      "yolu": 2702,
      "1998": 2703,
      "eyalet": 2704,
      "cor": 2705,
      "kam": 2706,
      "mahall": 2707,
      "biz": 2708,
      "geldi": 2709,
      "yerel": 2710,
      "şampiyonası": 2711,
      "familyas": 2712,
      "bn": 2713,
      "sıra": 2714,
      "uluk": 2715,
      "devr": 2716,
      "wa": 2717,
      "ligi": 2718,
      "basketbol": 2719,
      "bulunur": 2720,
      "mus": 2721,
      "etmek": 2722,
      "rafi": 2723,
      "belediy": 2724,
      "tarihçe": 2725,
      "ciler": 2726,
      "ulan": 2727,
      "sinema": 2728,
      "i̇ş": 2729,
      "aca": 2730,
      "bert": 2731,
      "rağmen": 2732,
      "lardır": 2733,
      "elektr": 2734,
      "hakkında": 2735,
      "tat": 2736,
      "gre": 2737,
      "toprak": 2738,
      "oz": 2739,
      "2021": 2740,
      "ydı": 2741,
      "wor": 2742,
      "asyonu": 2743,
      "nek": 2744,
      "milyon": 2745,
      "fel": 2746,
      "savun": 2747,
      "iyan": 2748,
      "önc": 2749,
      "ıyla": 2750,
      "fiz": 2751,
      "ılması": 2752,
      "yardımcı": 2753,
      "york": 2754,
      "gerçekleştir": 2755,
      "his": 2756,
      "kop": 2757,
      "silah": 2758,
      "meh": 2759,
      "ince": 2760,
      "gönder": 2761,
      "by": 2762,
      "taşı": 2763,
      "işim": 2764,
      "istik": 2765,
      "win": 2766,
      "nok": 2767,
      "seri": 2768,
      "lerle": 2769,
      "çıktı": 2770,
      "1996": 2771,
      "mot": 2772,
      "haf": 2773,
      "uzaklık": 2774,
      "belirt": 2775,
      "ağır": 2776,
      "yıldız": 2777,
      "inşa": 2778,
      "ann": 2779,
      "1997": 2780,
      "göl": 2781,
      "kın": 2782,
      "33": 2783,
      "aret": 2784,
      "tesi": 2785,
      "bro": 2786,
      "tekrar": 2787,
      "organ": 2788,
      "kitab": 2789,
      "elde": 2790,
      "tiv": 2791,
      "fon": 2792,
      "66": 2793,
      "birkaç": 2794,
      "up": 2795,
      "tim": 2796,
      "olur": 2797,
      "eleştir": 2798,
      "sidir": 2799,
      "lanmıştır": 2800,
      "ece": 2801,
      "kariyer": 2802,
      "atı": 2803,
      "özellik": 2804,
      "ell": 2805,
      "üçün": 2806,
      "raki": 2807,
      "boz": 2808,
      "dolayı": 2809,
      "verdi": 2810,
      "188": 2811,
      "ülkeler": 2812,
      "çift": 2813,
      "temi": 2814,
      "büt": 2815,
      "olması": 2816,
      "değiştir": 2817,
      "hiç": 2818,
      "lay": 2819,
      "hir": 2820,
      "sy": 2821,
      "not": 2822,
      "yahu": 2823,
      "türü": 2824,
      "burada": 2825,
      "1995": 2826,
      "trans": 2827,
      "şah": 2828,
      "1994": 2829,
      "1992": 2830,
      "lek": 2831,
      "ilmesi": 2832,
      "oyna": 2833,
      "kariyeri": 2834,
      "oyunc": 2835,
      "olduk": 2836,
      "lamıştır": 2837,
      "kontrol": 2838,
      "mel": 2839,
      "ticar": 2840,
      "kayıt": 2841,
      "vur": 2842,
      "landa": 2843,
      "ula": 2844,
      "filmi": 2845,
      "ifa": 2846,
      "mur": 2847,
      "yatı": 2848,
      "num": 2849,
      "cas": 2850,
      "f2": 2851,
      "lendi": 2852,
      "çiz": 2853,
      "oyuncuları": 2854,
      "lit": 2855,
      "may": 2856,
      "wi": 2857,
      "2022": 2858,
      "31": 2859,
      "isinin": 2860,
      "uğ": 2861,
      "söyle": 2862,
      "bon": 2863,
      "dia": 2864,
      "fakül": 2865,
      "1993": 2866,
      "pal": 2867,
      "dayan": 2868,
      "sonunda": 2869,
      "adam": 2870,
      "olog": 2871,
      "fat": 2872,
      "hit": 2873,
      "familyasına": 2874,
      "tip": 2875,
      "esel": 2876,
      "boş": 2877,
      "187": 2878,
      "gurbetçi": 2879,
      "belediye": 2880,
      "1980": 2881,
      "ize": 2882,
      "tep": 2883,
      "çar": 2884,
      "kir": 2885,
      "bilinen": 2886,
      "söy": 2887,
      "aşağı": 2888,
      "umu": 2889,
      "bra": 2890,
      "stat": 2891,
      "olojik": 2892,
      "liam": 2893,
      "arasındaki": 2894,
      "sahiptir": 2895,
      "undan": 2896,
      "almıştır": 2897,
      "kullanılan": 2898,
      "idi": 2899,
      "konuş": 2900,
      "model": 2901,
      "üyesi": 2902,
      "sah": 2903,
      "gök": 2904,
      "sırada": 2905,
      "feder": 2906,
      "müca": 2907,
      "akadem": 2908,
      "siyasi": 2909,
      "üb": 2910,
      "gc": 2911,
      "emek": 2912,
      "ğinde": 2913,
      "geçen": 2914,
      "beyaz": 2915,
      "rom": 2916,
      "est": 2917,
      "hüküm": 2918,
      "adıyla": 2919,
      "bri": 2920,
      "taki": 2921,
      "wo": 2922,
      "yapan": 2923,
      "anlat": 2924,
      "teki": 2925,
      "resim": 2926,
      "mim": 2927,
      "ecek": 2928,
      "yaşında": 2929,
      "i̇mparatorluğu": 2930,
      "site": 2931,
      "tanrı": 2932,
      "ron": 2933,
      "para": 2934,
      "asya": 2935,
      "dük": 2936,
      "gelir": 2937,
      "madalya": 2938,
      "mağ": 2939,
      "ws": 2940,
      "belde": 2941,
      "saldırı": 2942,
      "eni": 2943,
      "far": 2944,
      "urt": 2945,
      "babası": 2946,
      "ask": 2947,
      "anın": 2948,
      "burg": 2949,
      "bl": 2950,
      "ity": 2951,
      "best": 2952,
      "cılı": 2953,
      "huku": 2954,
      "üler": 2955,
      "i̇talyan": 2956,
      "çıkış": 2957,
      "hik": 2958,
      "rich": 2959,
      "pas": 2960,
      "azer": 2961,
      "lea": 2962,
      "alır": 2963,
      "öğrenim": 2964,
      "meler": 2965,
      "üçüncü": 2966,
      "aya": 2967,
      "adlandır": 2968,
      "yapıl": 2969,
      "giy": 2970,
      "anda": 2971,
      "çu": 2972,
      "1991": 2973,
      "fır": 2974,
      "ers": 2975,
      "oluşan": 2976,
      "diler": 2977,
      "dele": 2978,
      "ts": 2979,
      "nam": 2980,
      "hin": 2981,
      "saat": 2982,
      "açı": 2983,
      "kazanan": 2984,
      "cil": 2985,
      "arkadaş": 2986,
      "sing": 2987,
      "değişik": 2988,
      "örne": 2989,
      "çap": 2990,
      "olmayan": 2991,
      "ermen": 2992,
      "cy": 2993,
      "vir": 2994,
      "böyle": 2995,
      "pit": 2996,
      "yanı": 2997,
      "char": 2998,
      "araştırma": 2999,
      "kurt": 3000,
      "çevr": 3001,
      "wn": 3002,
      "90": 3003,
      "poz": 3004,
      "mos": 3005,
      "yarat": 3006,
      "dana": 3007,
      "geçer": 3008,
      "baycan": 3009,
      "yerleşim": 3010,
      "kulüb": 3011,
      "ision": 3012,
      "yazı": 3013,
      "dor": 3014,
      "ide": 3015,
      "edebi": 3016,
      "çalışmalar": 3017,
      "oranı": 3018,
      "1970": 3019,
      "ifade": 3020,
      "ortak": 3021,
      "oyuncular": 3022,
      "anad": 3023,
      "dek": 3024,
      "küt": 3025,
      "sultan": 3026,
      "cut": 3027,
      "80": 3028,
      "him": 3029,
      "aber": 3030,
      "32": 3031,
      "ünlü": 3032,
      "ht": 3033,
      "dam": 3034,
      "azerbaycan": 3035,
      "asını": 3036,
      "motor": 3037,
      "yağ": 3038,
      "i̇ran": 3039,
      "wit": 3040,
      "uzaklıktadır": 3041,
      "öldü": 3042,
      "yonel": 3043,
      "birinci": 3044,
      "ces": 3045,
      "i̇slam": 3046,
      "çoğu": 3047,
      "tok": 3048,
      "hor": 3049,
      "suz": 3050,
      "paz": 3051,
      "profesyonel": 3052,
      "wal": 3053,
      "ebilir": 3054,
      "suç": 3055,
      "sebe": 3056,
      "afrika": 3057,
      "eral": 3058,
      "sında": 3059,
      "dağı": 3060,
      "uni": 3061,
      "35": 3062,
      "moder": 3063,
      "askeri": 3064,
      "lav": 3065,
      "pres": 3066,
      "biç": 3067,
      "war": 3068,
      "çıkan": 3069,
      "ang": 3070,
      "ted": 3071,
      "emi": 3072,
      "ayet": 3073,
      "sistemi": 3074,
      "nit": 3075,
      "benzer": 3076,
      "ilmektedir": 3077,
      "1989": 3078,
      "iyordu": 3079,
      "japon": 3080,
      "tb": 3081,
      "naz": 3082,
      "türkçe": 3083,
      "kalan": 3084,
      "süper": 3085,
      "if": 3086,
      "sahi": 3087,
      "hangi": 3088,
      "brit": 3089,
      "görüş": 3090,
      "gül": 3091,
      "rik": 3092,
      "isti": 3093,
      "97": 3094,
      "çat": 3095,
      "almaktadır": 3096,
      "tanın": 3097,
      "edilir": 3098,
      "adını": 3099,
      "itibaren": 3100,
      "cılık": 3101,
      "ob": 3102,
      "yine": 3103,
      "ila": 3104,
      "iri": 3105,
      "anadolu": 3106,
      "fet": 3107,
      "):": 3108,
      "45": 3109,
      "soy": 3110,
      "sonraki": 3111,
      "league": 3112,
      "albümü": 3113,
      "şim": 3114,
      "gon": 3115,
      "bölgeler": 3116,
      "mısır": 3117,
      "modern": 3118,
      "beraber": 3119,
      "isini": 3120,
      "ılım": 3121,
      "cisi": 3122,
      "lanmış": 3123,
      "1988": 3124,
      "fot": 3125,
      "toplum": 3126,
      "ww": 3127,
      "üyeleri": 3128,
      "giz": 3129,
      "tro": 3130,
      "lamak": 3131,
      "cular": 3132,
      "sahipleri": 3133,
      "krallık": 3134,
      "verilen": 3135,
      "kâ": 3136,
      "kaya": 3137,
      "''": 3138,
      "gez": 3139,
      "teor": 3140,
      "fizik": 3141,
      "tom": 3142,
      "proj": 3143,
      "amacı": 3144,
      "io": 3145,
      "kaldı": 3146,
      "döneminde": 3147,
      "1986": 3148,
      ".\"": 3149,
      "mis": 3150,
      "araç": 3151,
      "örnek": 3152,
      "yapımı": 3153,
      "1987": 3154,
      "ayar": 3155,
      "derg": 3156,
      "ie": 3157,
      "ışı": 3158,
      "los": 3159,
      "bütün": 3160,
      "hav": 3161,
      "ras": 3162,
      "hey": 3163,
      "sonucu": 3164,
      "alanı": 3165,
      "vak": 3166,
      "güreş": 3167,
      "gran": 3168,
      "bilgi": 3169,
      "ordusu": 3170,
      "berg": 3171,
      "doğan": 3172,
      "mö": 3173,
      "uygulam": 3174,
      "ayak": 3175,
      "bakanı": 3176,
      "jam": 3177,
      "etmiştir": 3178,
      "jin": 3179,
      "ata": 3180,
      "esinden": 3181,
      "nız": 3182,
      "birim": 3183,
      "renk": 3184,
      "manın": 3185,
      "isyen": 3186,
      "tri": 3187,
      "i̇spanya": 3188,
      "komün": 3189,
      "inan": 3190,
      "yalnız": 3191,
      "stit": 3192,
      "çöz": 3193,
      "rail": 3194,
      "buna": 3195,
      "uyar": 3196,
      "çalıştı": 3197,
      "şehrin": 3198,
      "kale": 3199,
      "tekn": 3200,
      "ödülleri": 3201,
      "hy": 3202,
      "yaygın": 3203,
      "rock": 3204,
      "muhar": 3205,
      "japonya": 3206,
      "geor": 3207,
      "sezonunda": 3208,
      "65": 3209,
      "atör": 3210,
      "lider": 3211,
      "aldığı": 3212,
      "etik": 3213,
      "ülke": 3214,
      "sürdür": 3215,
      "faal": 3216,
      "hâ": 3217,
      "mada": 3218,
      "ju": 3219,
      "bb": 3220,
      "mevcut": 3221,
      "hes": 3222,
      "william": 3223,
      "perfor": 3224,
      "gam": 3225,
      "otom": 3226,
      "iliği": 3227,
      "liğini": 3228,
      "ung": 3229,
      "güz": 3230,
      "etkin": 3231,
      "70": 3232,
      "bölgesi": 3233,
      "dışında": 3234,
      "katıldı": 3235,
      "bis": 3236,
      "pap": 3237,
      "ngc": 3238,
      "resm": 3239,
      "kilis": 3240,
      "1960": 3241,
      "vas": 3242,
      "şekl": 3243,
      "yaban": 3244,
      "ilçe": 3245,
      "mühen": 3246,
      "senar": 3247,
      "kızıl": 3248,
      "uma": 3249,
      "başkanlığı": 3250,
      "ort": 3251,
      "okulu": 3252,
      "vat": 3253,
      "imz": 3254,
      "yarışması": 3255,
      "performan": 3256,
      "mahalleleri": 3257,
      "bölümü": 3258,
      "ümü": 3259,
      "teş": 3260,
      "yapmıştır": 3261,
      "fir": 3262,
      "hri": 3263,
      "jen": 3264,
      "faaliyet": 3265,
      "doğdu": 3266,
      "koy": 3267,
      "güt": 3268,
      "konusu": 3269,
      "1984": 3270,
      "ian": 3271,
      "ayd": 3272,
      "haber": 3273,
      "ford": 3274,
      "low": 3275,
      "tbmm": 3276,
      "yoğun": 3277,
      "müzi": 3278,
      "avustur": 3279,
      "üldü": 3280,
      "hukuk": 3281,
      "lerdir": 3282,
      "sonuçlar": 3283,
      "doktor": 3284,
      "mehmet": 3285,
      "zar": 3286,
      "lisi": 3287,
      "sahibi": 3288,
      "macar": 3289,
      "i̇ç": 3290,
      "plat": 3291,
      "nden": 3292,
      "ışık": 3293,
      "dair": 3294,
      "kaldır": 3295,
      "ürün": 3296,
      "lanır": 3297,
      "göç": 3298,
      "örneğin": 3299,
      "mesine": 3300,
      "i̇srail": 3301,
      "medi": 3302,
      "47": 3303,
      "kullanılır": 3304,
      "pren": 3305,
      "puan": 3306,
      "tık": 3307,
      "ici": 3308,
      "sas": 3309,
      "hayatı": 3310,
      "play": 3311,
      "parçası": 3312,
      "leriyle": 3313,
      "blo": 3314,
      "avustr": 3315,
      "mekte": 3316,
      "gelenek": 3317,
      "geçti": 3318,
      "ale": 3319,
      "mark": 3320,
      "emin": 3321,
      "1985": 3322,
      "ceae": 3323,
      "mücadele": 3324,
      "birbir": 3325,
      "muh": 3326,
      "meyi": 3327,
      "müş": 3328,
      "ezil": 3329,
      "serbest": 3330,
      "alarında": 3331,
      "dro": 3332,
      "bugün": 3333,
      "üniversit": 3334,
      "asıyla": 3335,
      "che": 3336,
      "jos": 3337,
      "pay": 3338,
      "kili": 3339,
      "albümleri": 3340,
      "veren": 3341,
      "ds": 3342,
      "masının": 3343,
      "ğine": 3344,
      "cinsidir": 3345,
      "yanın": 3346,
      "dönüş": 3347,
      "biçim": 3348,
      "kuruluş": 3349,
      "adet": 3350,
      "ue": 3351,
      "yılından": 3352,
      "kadınlar": 3353,
      "ıp": 3354,
      "balık": 3355,
      "abile": 3356,
      "brezil": 3357,
      "ısı": 3358,
      "lah": 3359,
      "yapımcı": 3360,
      "ateş": 3361,
      "mıştı": 3362,
      "görenler": 3363,
      "ısında": 3364,
      "pis": 3365,
      "leyen": 3366,
      "endi": 3367,
      "larıyla": 3368,
      "turnu": 3369,
      "str": 3370,
      "elerin": 3371,
      "erken": 3372,
      "dönemde": 3373,
      "giriş": 3374,
      "mol": 3375,
      "müs": 3376,
      "37": 3377,
      "nav": 3378,
      "i̇sveç": 3379,
      "örgüt": 3380,
      "engel": 3381,
      "angel": 3382,
      "bulundu": 3383,
      "iv": 3384,
      "aların": 3385,
      "istiyan": 3386,
      "adalet": 3387,
      "eki": 3388,
      "omet": 3389,
      "olimpiyatları": 3390,
      "lüğü": 3391,
      "kanal": 3392,
      "müdür": 3393,
      "başlan": 3394,
      "malı": 3395,
      "lüğ": 3396,
      "günü": 3397,
      "izin": 3398,
      "ag": 3399,
      "elem": 3400,
      "güzel": 3401,
      "i̇kinci": 3402,
      "kray": 3403,
      "kıyı": 3404,
      "1983": 3405,
      "düzenlenen": 3406,
      "ladığı": 3407,
      "1982": 3408,
      "day": 3409,
      "dığını": 3410,
      "amaç": 3411,
      "nat": 3412,
      "asıllı": 3413,
      "ledi": 3414,
      "ders": 3415,
      "bildir": 3416,
      "lev": 3417,
      "hale": 3418,
      "resmî": 3419,
      "çoğun": 3420,
      "lığını": 3421,
      "fr": 3422,
      "48": 3423,
      "gali": 3424,
      "teh": 3425,
      "general": 3426,
      "herhangi": 3427,
      "klas": 3428,
      "ani": 3429,
      "olabilir": 3430,
      "cez": 3431,
      "que": 3432,
      "ukray": 3433,
      "bla": 3434,
      "kamp": 3435,
      "mimar": 3436,
      "sik": 3437,
      "yel": 3438,
      "tepe": 3439,
      "günümüzde": 3440,
      "bilgis": 3441,
      "güm": 3442,
      "f2f2": 3443,
      "itibarıyla": 3444,
      "hemen": 3445,
      "mc": 3446,
      "şta": 3447,
      "kardeş": 3448,
      "cem": 3449,
      "başı": 3450,
      "ilebilir": 3451,
      "oda": 3452,
      "aray": 3453,
      "eurov": 3454,
      "işlem": 3455,
      "all": 3456,
      "1979": 3457,
      "güneş": 3458,
      "şiir": 3459,
      ".)": 3460,
      "milletvekil": 3461,
      "ong": 3462,
      "ms": 3463,
      "38": 3464,
      "i̇zmir": 3465,
      "konusunda": 3466,
      "nation": 3467,
      "metre": 3468,
      "eurovision": 3469,
      "saha": 3470,
      "univer": 3471,
      "yorum": 3472,
      "mahalledir": 3473,
      "kimya": 3474,
      "mühendis": 3475,
      "fifa": 3476,
      "politik": 3477,
      "|}": 3478,
      "asının": 3479,
      "yıllarında": 3480,
      "stand": 3481,
      "idae": 3482,
      "musta": 3483,
      "madan": 3484,
      "tun": 3485,
      "hel": 3486,
      "ira": 3487,
      "bot": 3488,
      "36": 3489,
      "cat": 3490,
      "uldu": 3491,
      "şehri": 3492,
      "yeş": 3493,
      "içeren": 3494,
      "kali": 3495,
      "yıllık": 3496,
      "pil": 3497,
      "mesini": 3498,
      "vardı": 3499,
      "lov": 3500,
      "ld": 3501,
      "ilet": 3502,
      "cr": 3503,
      "hristiyan": 3504,
      "köken": 3505,
      "%|": 3506,
      "2023": 3507,
      "kayb": 3508,
      "sezonu": 3509,
      "transfer": 3510,
      "fakültesi": 3511,
      "bulgar": 3512,
      "ano": 3513,
      "lemek": 3514,
      "dö": 3515,
      "1974": 3516,
      "nas": 3517,
      "dikkat": 3518,
      "öncek": 3519,
      "cep": 3520,
      "row": 3521,
      "kuvvetleri": 3522,
      "işleri": 3523,
      "hüc": 3524,
      "ahmet": 3525,
      "1973": 3526,
      "star": 3527,
      "bizans": 3528,
      "fab": 3529,
      "ino": 3530,
      "astr": 3531,
      "antik": 3532,
      "mustafa": 3533,
      "34": 3534,
      "liga": 3535,
      "1981": 3536,
      "aile": 3537,
      "özgür": 3538,
      "böylece": 3539,
      "bakanlığı": 3540,
      "1975": 3541,
      "portek": 3542,
      "portekiz": 3543,
      "uzay": 3544,
      "hikâ": 3545,
      "şehirler": 3546,
      "laştır": 3547,
      "1972": 3548,
      "coun": 3549,
      "çak": 3550,
      "uygun": 3551,
      "isbn": 3552,
      "ple": 3553,
      "yani": 3554,
      "kış": 3555,
      "yav": 3556,
      "edilmiş": 3557,
      "siyasetçi": 3558,
      "sona": 3559,
      "sıcak": 3560,
      "bulunduğu": 3561,
      "bunu": 3562,
      "1978": 3563,
      "i̇r": 3564,
      "sayıda": 3565,
      "incel": 3566,
      "öğretim": 3567,
      "ny": 3568,
      "keşf": 3569,
      "seslendir": 3570,
      "anal": 3571,
      "ilan": 3572,
      "tart": 3573,
      "önceki": 3574,
      "ward": 3575,
      "1976": 3576,
      "sonuc": 3577,
      "i̇ki": 3578,
      "katılım": 3579,
      "müslü": 3580,
      "1977": 3581,
      "cılar": 3582,
      "ştu": 3583,
      "başlangı": 3584,
      "başarılı": 3585,
      "ekonomik": 3586,
      "tex": 3587,
      "ayında": 3588,
      "paul": 3589,
      "müslüman": 3590,
      "stad": 3591,
      "girdi": 3592,
      "fu": 3593,
      "64": 3594,
      "lenmiştir": 3595,
      "pak": 3596,
      "kore": 3597,
      ".,": 3598,
      "ekli": 3599,
      "güçlü": 3600,
      "i̇spanyol": 3601,
      "mezar": 3602,
      "39": 3603,
      "jan": 3604,
      "sefer": 3605,
      "polonya": 3606,
      "enstit": 3607,
      "başlayan": 3608,
      "deney": 3609,
      "isimli": 3610,
      "gitar": 3611,
      "cılığı": 3612,
      "sağlık": 3613,
      "londra": 3614,
      "vin": 3615,
      "tanıt": 3616,
      "1968": 3617,
      "elektrik": 3618,
      "pt": 3619,
      "parça": 3620,
      "polis": 3621,
      "sayım": 3622,
      "eyen": 3623,
      "vatan": 3624,
      "kenin": 3625,
      "yılın": 3626,
      "hiçbir": 3627,
      "uçak": 3628,
      "anya": 3629,
      "meden": 3630,
      "ism": 3631,
      "yazarı": 3632,
      "55": 3633,
      "edebiyat": 3634,
      "sorun": 3635,
      "single": 3636,
      "are": 3637,
      "tığı": 3638,
      "ktan": 3639,
      "futbolcudur": 3640,
      "1971": 3641,
      "suriye": 3642,
      "bahçe": 3643,
      "metal": 3644,
      "graf": 3645,
      "distan": 3646,
      "kişiler": 3647,
      "yık": 3648,
      "set": 3649,
      "doğal": 3650,
      "gus": 3651,
      "koç": 3652,
      "matem": 3653,
      "tartış": 3654,
      "ble": 3655,
      "pın": 3656,
      "vo": 3657,
      "lou": 3658,
      "ceği": 3659,
      "ğın": 3660,
      "bilgisayar": 3661,
      "ticaret": 3662,
      "masıyla": 3663,
      "esiyle": 3664,
      "gra": 3665,
      "kurum": 3666,
      "ore": 3667,
      "üretim": 3668,
      "aydın": 3669,
      "kum": 3670,
      "siyasetçiler": 3671,
      "ester": 3672,
      "hast": 3673,
      "david": 3674,
      "mezun": 3675,
      "içerisinde": 3676,
      "fre": 3677,
      "yalnızca": 3678,
      "fotoğraf": 3679,
      "sına": 3680,
      "masından": 3681,
      "1c": 3682,
      "alam": 3683,
      "çalışmaları": 3684,
      "lenir": 3685,
      "milliyet": 3686,
      "sıyla": 3687,
      "yunanistan": 3688,
      "konser": 3689,
      "kenti": 3690,
      "anlamına": 3691,
      "çan": 3692,
      "yabancı": 3693,
      "1969": 3694,
      "robert": 3695,
      "pozisyon": 3696,
      "köpr": 3697,
      "cm": 3698,
      "ney": 3699,
      "manı": 3700,
      "tasarım": 3701,
      "haline": 3702,
      "oyunu": 3703,
      "line": 3704,
      "biridir": 3705,
      "mac": 3706,
      "yana": 3707,
      "felse": 3708,
      "çatış": 3709,
      "ment": 3710,
      "off": 3711,
      "gun": 3712,
      "başına": 3713,
      "düşük": 3714,
      "ederek": 3715,
      "udi": 3716,
      "world": 3717,
      "ray": 3718,
      "aşır": 3719,
      "doğum": 3720,
      "oynadı": 3721,
      "leyi": 3722,
      "ndeki": 3723,
      "park": 3724,
      "zer": 3725,
      "yör": 3726,
      "şen": 3727,
      "ilip": 3728,
      "prof": 3729,
      "kralı": 3730,
      "iii": 3731,
      "tanı": 3732,
      "öm": 3733,
      "çalışan": 3734,
      "deli": 3735,
      "cins": 3736,
      "isine": 3737,
      "die": 3738,
      "gider": 3739,
      "bitir": 3740,
      "ülkenin": 3741,
      "şarkıları": 3742,
      "1950": 3743,
      "köyleri": 3744,
      "başlat": 3745,
      "micha": 3746,
      "hır": 3747,
      "şeklinde": 3748,
      "dizileri": 3749,
      "pazar": 3750,
      "piyasa": 3751,
      "kızı": 3752,
      "avusturya": 3753,
      "jer": 3754,
      "okal": 3755,
      "oyuncusu": 3756,
      "masında": 3757,
      "sarı": 3758,
      "cus": 3759,
      "sayf": 3760,
      "cileri": 3761,
      "siyonu": 3762,
      "bilen": 3763,
      "...": 3764,
      "rum": 3765,
      "uri": 3766,
      "çün": 3767,
      "ziy": 3768,
      "donan": 3769,
      "hafta": 3770,
      "way": 3771,
      "geçmiş": 3772,
      "1967": 3773,
      "amaya": 3774,
      "gözlem": 3775,
      "ğına": 3776,
      "atür": 3777,
      "yöntem": 3778,
      "bölgesinde": 3779,
      "saray": 3780,
      "yanında": 3781,
      "düğ": 3782,
      "şan": 3783,
      "matematik": 3784,
      "deri": 3785,
      "yıllarda": 3786,
      "tren": 3787,
      "radyo": 3788,
      "maçta": 3789,
      "ilerini": 3790,
      "kapsam": 3791,
      "atif": 3792,
      "köydür": 3793,
      "çünkü": 3794,
      "iddia": 3795,
      "yürüt": 3796,
      "verildi": 3797,
      "diye": 3798,
      "michael": 3799,
      "mahkem": 3800,
      "tespit": 3801,
      "kardeşi": 3802,
      "buz": 3803,
      "forni": 3804,
      "seçildi": 3805,
      "zon": 3806,
      "ling": 3807,
      "sonrasında": 3808,
      "talık": 3809,
      "james": 3810,
      "ilmek": 3811,
      "seçimleri": 3812,
      "isel": 3813,
      "erkekler": 3814,
      "işlet": 3815,
      "i̇nsan": 3816,
      "stü": 3817,
      "ukrayna": 3818,
      "cık": 3819,
      "tp": 3820,
      "kli": 3821,
      "yılına": 3822,
      "psik": 3823,
      "cuları": 3824,
      "indir": 3825,
      "kıbr": 3826,
      "dizisi": 3827,
      "fri": 3828,
      "dünyanın": 3829,
      "tıp": 3830,
      "şair": 3831,
      "dows": 3832,
      "lilik": 3833,
      "nehri": 3834,
      "oldukça": 3835,
      "imparator": 3836,
      "shire": 3837,
      "fen": 3838,
      "elerinin": 3839,
      "kıbrıs": 3840,
      "popüler": 3841,
      "ita": 3842,
      "merkezli": 3843,
      "vis": 3844,
      "oran": 3845,
      "hraman": 3846,
      "ves": 3847,
      "national": 3848,
      "bran": 3849,
      "konum": 3850,
      "erz": 3851,
      "sahn": 3852,
      "1965": 3853,
      "boğ": 3854,
      "nan": 3855,
      "şid": 3856,
      "fener": 3857,
      "forma": 3858,
      "değildir": 3859,
      "1928": 3860,
      "ceğini": 3861,
      "//": 3862,
      "kaf": 3863,
      "sözleş": 3864,
      "ğa": 3865,
      "canlandır": 3866,
      "1966": 3867,
      "kahraman": 3868,
      "57": 3869,
      "hanedan": 3870,
      "çalışma": 3871,
      "mic": 3872,
      "kanada": 3873,
      "mişti": 3874,
      "44": 3875,
      "boyut": 3876,
      "katkı": 3877,
      "68": 3878,
      "yeşil": 3879,
      "yahudi": 3880,
      "tis": 3881,
      "avustralya": 3882,
      "bom": 3883,
      "nokt": 3884,
      "rul": 3885,
      "ografi": 3886,
      "kuruldu": 3887,
      "ndan": 3888,
      "amacıyla": 3889,
      "hollanda": 3890,
      "ayır": 3891,
      "serg": 3892,
      "barış": 3893,
      "hızlı": 3894,
      "tez": 3895,
      "uefa": 3896,
      "tamamen": 3897,
      "birey": 3898,
      "asit": 3899,
      "tük": 3900,
      "rec": 3901,
      "veri": 3902,
      "hüs": 3903,
      "geleneksel": 3904,
      "ate": 3905,
      "içi": 3906,
      "görüntü": 3907,
      "taşın": 3908,
      "dram": 3909,
      "laya": 3910,
      "niş": 3911,
      "ilerek": 3912,
      "bayr": 3913,
      "ydi": 3914,
      "kov": 3915,
      "251c": 3916,
      "da251c": 3917,
      "adan": 3918,
      "1964": 3919,
      "uluğu": 3920,
      "ratik": 3921,
      "sovyetler": 3922,
      "güvenlik": 3923,
      "ory": 3924,
      "kate": 3925,
      "kları": 3926,
      "ski": 3927,
      "yayınlandı": 3928,
      "vel": 3929,
      "yazılım": 3930,
      "filmin": 3931,
      "gerçekleş": 3932,
      "gümüş": 3933,
      "yası": 3934,
      "çevir": 3935,
      "yapıldı": 3936,
      "üyle": 3937,
      "viç": 3938,
      "nedenle": 3939,
      "taydı": 3940,
      "kırmı": 3941,
      "keti": 3942,
      "hastalık": 3943,
      "alarda": 3944,
      "ala": 3945,
      "komutan": 3946,
      "öğretmen": 3947,
      "anti": 3948,
      "kullanım": 3949,
      "köyün": 3950,
      "ura": 3951,
      "pri": 3952,
      "araya": 3953,
      "bos": 3954,
      "öner": 3955,
      "yurt": 3956,
      "meclis": 3957,
      "başbakan": 3958,
      "bus": 3959,
      "yazarları": 3960,
      "alarak": 3961,
      "ograf": 3962,
      "leşti": 3963,
      "ges": 3964,
      "ej": 3965,
      "67": 3966,
      "yaşamı": 3967,
      "yayınlanan": 3968,
      "zo": 3969,
      "49": 3970,
      "devleti": 3971,
      "i̇st": 3972,
      "oku": 3973,
      "iken": 3974,
      "muham": 3975,
      "lığına": 3976,
      "makta": 3977,
      "festiv": 3978,
      "verir": 3979,
      "fl": 3980,
      "tarihli": 3981,
      "istler": 3982,
      "oynam": 3983,
      "58": 3984,
      "ital": 3985,
      "windows": 3986,
      "1945": 3987,
      "sonrası": 3988,
      "festivali": 3989,
      "türüdür": 3990,
      "galak": 3991,
      "parlam": 3992,
      "sonucunda": 3993,
      "cs": 3994,
      "gazete": 3995,
      "çileri": 3996,
      "ctor": 3997,
      "etmektedir": 3998,
      "otomo": 3999
    },
    "merges": [
      [
        "a",
        "r"
      ],
      [
        "a",
        "n"
      ],
      [
        "e",
        "r"
      ],
      [
        "i",
        "n"
      ],
      [
        "e",
        "n"
      ],
      [
        "a",
        "l"
      ],
      [
        "ı",
        "n"
      ],
      [
        "i",
        "l"
      ],
      [
        "i",
        "r"
      ],
      [
        "d",
        "a"
      ],
      [
        "l",
        "ar"
      ],
      [
        "d",
        "e"
      ],
      [
        "a",
        "k"
      ],
      [
        "y",
        "a"
      ],
      [
        "o",
        "l"
      ],
      [
        "e",
        "l"
      ],
      [
        "o",
        "n"
      ],
      [
        "e",
        "t"
      ],
      [
        "v",
        "e"
      ],
      [
        "a",
        "s"
      ],
      [
        "u",
        "n"
      ],
      [
        "e",
        "s"
      ],
      [
        "i",
        "s"
      ],
      [
        "l",
        "er"
      ],
      [
        "a",
        "m"
      ],
      [
        "i",
        "k"
      ],
      [
        "e",
        "k"
      ],
      [
        "a",
        "y"
      ],
      [
        "o",
        "r"
      ],
      [
        "d",
        "ı"
      ],
      [
        "a",
        "t"
      ],
      [
        "b",
        "ir"
      ],
      [
        "ı",
        "l"
      ],
      [
        "u",
        "r"
      ],
      [
        "l",
        "e"
      ],
      [
        "u",
        "l"
      ],
      [
        "b",
        "a"
      ],
      [
        "d",
        "i"
      ],
      [
        "1",
        "9"
      ],
      [
        "i",
        "m"
      ],
      [
        "ü",
        "r"
      ],
      [
        "t",
        "e"
      ],
      [
        "ü",
        "n"
      ],
      [
        "2",
        "0"
      ],
      [
        "ı",
        "r"
      ],
      [
        "i",
        "t"
      ],
      [
        "m",
        "a"
      ],
      [
        "ş",
        "t"
      ],
      [
        "ın",
        "da"
      ],
      [
        "i",
        "y"
      ],
      [
        "l",
        "ı"
      ],
      [
        "l",
        "a"
      ],
      [
        "s",
        "t"
      ],
      [
        "l",
        "i"
      ],
      [
        "l",
        "an"
      ],
      [
        "d",
        "an"
      ],
      [
        "i",
        "̇"
      ],
      [
        "k",
        "a"
      ],
      [
        "lar",
        "ı"
      ],
      [
        "s",
        "a"
      ],
      [
        "t",
        "a"
      ],
      [
        "d",
        "en"
      ],
      [
        "k",
        "i"
      ],
      [
        "e",
        "m"
      ],
      [
        "e",
        "y"
      ],
      [
        "r",
        "o"
      ],
      [
        "u",
        "s"
      ],
      [
        "r",
        "a"
      ],
      [
        "in",
        "de"
      ],
      [
        "h",
        "a"
      ],
      [
        "u",
        "m"
      ],
      [
        "i",
        "z"
      ],
      [
        "ö",
        "r"
      ],
      [
        "ö",
        "n"
      ],
      [
        "y",
        "ıl"
      ],
      [
        "ar",
        "a"
      ],
      [
        "in",
        "e"
      ],
      [
        "d",
        "u"
      ],
      [
        "ler",
        "i"
      ],
      [
        "t",
        "i"
      ],
      [
        "ü",
        "z"
      ],
      [
        "as",
        "ı"
      ],
      [
        "d",
        "ir"
      ],
      [
        "u",
        "t"
      ],
      [
        "i",
        "ş"
      ],
      [
        "b",
        "u"
      ],
      [
        "i",
        "ç"
      ],
      [
        "dı",
        "r"
      ],
      [
        "ı",
        "k"
      ],
      [
        "es",
        "i"
      ],
      [
        "ı",
        "m"
      ],
      [
        "er",
        "i"
      ],
      [
        "il",
        "e"
      ],
      [
        "s",
        "on"
      ],
      [
        "d",
        "o"
      ],
      [
        "ı",
        "ş"
      ],
      [
        "e",
        "v"
      ],
      [
        "e",
        "d"
      ],
      [
        "ü",
        "k"
      ],
      [
        "ü",
        "l"
      ],
      [
        "c",
        "u"
      ],
      [
        "m",
        "an"
      ],
      [
        "il",
        "m"
      ],
      [
        "ba",
        "ş"
      ],
      [
        "o",
        "k"
      ],
      [
        "t",
        "ı"
      ],
      [
        "l",
        "u"
      ],
      [
        "o",
        "y"
      ],
      [
        "lar",
        "ak"
      ],
      [
        "=",
        "\""
      ],
      [
        "in",
        "i"
      ],
      [
        "ü",
        "m"
      ],
      [
        "c",
        "e"
      ],
      [
        "o",
        "larak"
      ],
      [
        "c",
        "a"
      ],
      [
        "ö",
        "l"
      ],
      [
        "t",
        "er"
      ],
      [
        "k",
        "ar"
      ],
      [
        "ın",
        "dan"
      ],
      [
        "o",
        "s"
      ],
      [
        "t",
        "ür"
      ],
      [
        "ğ",
        "ı"
      ],
      [
        "ın",
        "ı"
      ],
      [
        "ya",
        "p"
      ],
      [
        "c",
        "h"
      ],
      [
        "o",
        "m"
      ],
      [
        "t",
        "an"
      ],
      [
        "e",
        "z"
      ],
      [
        "20",
        "0"
      ],
      [
        "k",
        "ay"
      ],
      [
        "b",
        "il"
      ],
      [
        "o",
        "p"
      ],
      [
        "b",
        "ul"
      ],
      [
        "t",
        "h"
      ],
      [
        "s",
        "ı"
      ],
      [
        "ç",
        "a"
      ],
      [
        "ba",
        "ğ"
      ],
      [
        "v",
        "er"
      ],
      [
        "ın",
        "a"
      ],
      [
        "k",
        "ı"
      ],
      [
        "al",
        "i"
      ],
      [
        "20",
        "1"
      ],
      [
        "in",
        "in"
      ],
      [
        "p",
        "ar"
      ],
      [
        "ğ",
        "i"
      ],
      [
        "b",
        "ol"
      ],
      [
        "g",
        "e"
      ],
      [
        "n",
        "e"
      ],
      [
        "t",
        "ar"
      ],
      [
        "g",
        "ör"
      ],
      [
        "m",
        "ak"
      ],
      [
        "şt",
        "ir"
      ],
      [
        "al",
        "ar"
      ],
      [
        "is",
        "i"
      ],
      [
        "l",
        "ik"
      ],
      [
        "u",
        "z"
      ],
      [
        "a",
        "z"
      ],
      [
        "g",
        "el"
      ],
      [
        "k",
        "en"
      ],
      [
        "c",
        "i"
      ],
      [
        "al",
        "ı"
      ],
      [
        "il",
        "er"
      ],
      [
        "s",
        "i"
      ],
      [
        "iç",
        "in"
      ],
      [
        "r",
        "e"
      ],
      [
        "ö",
        "z"
      ],
      [
        "s",
        "e"
      ],
      [
        "l",
        "am"
      ],
      [
        "do",
        "ğ"
      ],
      [
        "şt",
        "ır"
      ],
      [
        "m",
        "e"
      ],
      [
        "g",
        "i"
      ],
      [
        "m",
        "i"
      ],
      [
        "s",
        "an"
      ],
      [
        "y",
        "er"
      ],
      [
        "r",
        "u"
      ],
      [
        "a",
        "ş"
      ],
      [
        "n",
        "ak"
      ],
      [
        "tür",
        "k"
      ],
      [
        "i",
        "h"
      ],
      [
        "k",
        "ur"
      ],
      [
        "a",
        "d"
      ],
      [
        "r",
        "i"
      ],
      [
        "s",
        "p"
      ],
      [
        "ü",
        "y"
      ],
      [
        "f",
        "ut"
      ],
      [
        "kay",
        "nak"
      ],
      [
        "ol",
        "an"
      ],
      [
        "d",
        "er"
      ],
      [
        "fut",
        "bol"
      ],
      [
        "g",
        "en"
      ],
      [
        "is",
        "t"
      ],
      [
        "ın",
        "ın"
      ],
      [
        "b",
        "i"
      ],
      [
        "c",
        "ı"
      ],
      [
        "m",
        "ı"
      ],
      [
        "g",
        "n"
      ],
      [
        "0",
        "0"
      ],
      [
        "ğ",
        "u"
      ],
      [
        "o",
        "t"
      ],
      [
        "l",
        "en"
      ],
      [
        "y",
        "on"
      ],
      [
        "m",
        "u"
      ],
      [
        "ay",
        "ı"
      ],
      [
        "r",
        "an"
      ],
      [
        "k",
        "on"
      ],
      [
        "ol",
        "du"
      ],
      [
        "a",
        "b"
      ],
      [
        "t",
        "ara"
      ],
      [
        "y",
        "ar"
      ],
      [
        "m",
        "ek"
      ],
      [
        "tara",
        "f"
      ],
      [
        "oy",
        "un"
      ],
      [
        "k",
        "an"
      ],
      [
        "h",
        "al"
      ],
      [
        "k",
        "ul"
      ],
      [
        "e",
        "ş"
      ],
      [
        "19",
        "9"
      ],
      [
        "t",
        "ak"
      ],
      [
        "b",
        "el"
      ],
      [
        "as",
        "ında"
      ],
      [
        "y",
        "an"
      ],
      [
        "yıl",
        "ında"
      ],
      [
        "h",
        "i"
      ],
      [
        "kaynak",
        "ça"
      ],
      [
        "g",
        "ün"
      ],
      [
        "c",
        "ol"
      ],
      [
        "ali",
        "gn"
      ],
      [
        "l",
        "et"
      ],
      [
        "ol",
        "u"
      ],
      [
        "tar",
        "ih"
      ],
      [
        "dı",
        "ş"
      ],
      [
        "taraf",
        "ından"
      ],
      [
        "ya",
        "z"
      ],
      [
        "ö",
        "y"
      ],
      [
        "f",
        "ilm"
      ],
      [
        "lı",
        "k"
      ],
      [
        "ç",
        "ık"
      ],
      [
        "c",
        "k"
      ],
      [
        "ka",
        "d"
      ],
      [
        "d",
        "ü"
      ],
      [
        "c",
        "ak"
      ],
      [
        "y",
        "en"
      ],
      [
        "a",
        "v"
      ],
      [
        "de",
        "v"
      ],
      [
        "1",
        "8"
      ],
      [
        "iy",
        "e"
      ],
      [
        "futbol",
        "cu"
      ],
      [
        "er",
        "k"
      ],
      [
        ")",
        ","
      ],
      [
        "el",
        "er"
      ],
      [
        "t",
        "ek"
      ],
      [
        "b",
        "öl"
      ],
      [
        "m",
        "en"
      ],
      [
        "il",
        "i"
      ],
      [
        "te",
        "m"
      ],
      [
        "n",
        "in"
      ],
      [
        "k",
        "u"
      ],
      [
        "bul",
        "un"
      ],
      [
        "k",
        "al"
      ],
      [
        "son",
        "ra"
      ],
      [
        "a",
        "da"
      ],
      [
        "o",
        "v"
      ],
      [
        "ya",
        "ş"
      ],
      [
        "m",
        "ar"
      ],
      [
        "g",
        "er"
      ],
      [
        "y",
        "la"
      ],
      [
        "m",
        "et"
      ],
      [
        "th",
        "e"
      ],
      [
        "a",
        "p"
      ],
      [
        "da",
        "ha"
      ],
      [
        "m",
        "ası"
      ],
      [
        "k",
        "at"
      ],
      [
        "bağ",
        "lan"
      ],
      [
        "i",
        "d"
      ],
      [
        "o",
        "ğ"
      ],
      [
        "mı",
        "ştır"
      ],
      [
        "n",
        "ın"
      ],
      [
        "t",
        "op"
      ],
      [
        "al",
        "an"
      ],
      [
        "ay",
        "r"
      ],
      [
        "kul",
        "lan"
      ],
      [
        "p",
        "ro"
      ],
      [
        "tı",
        "lar"
      ],
      [
        "f",
        "a"
      ],
      [
        "s",
        "u"
      ],
      [
        "ge",
        "ç"
      ],
      [
        "19",
        "8"
      ],
      [
        "m",
        "il"
      ],
      [
        "ta",
        "dır"
      ],
      [
        "c",
        "en"
      ],
      [
        "d",
        "ur"
      ],
      [
        "h",
        "ar"
      ],
      [
        "n",
        "a"
      ],
      [
        "ü",
        "ç"
      ],
      [
        "d",
        "ön"
      ],
      [
        "in",
        "den"
      ],
      [
        "h",
        "an"
      ],
      [
        "o",
        "f"
      ],
      [
        "s",
        "el"
      ],
      [
        "s",
        "ür"
      ],
      [
        "|",
        "-"
      ],
      [
        "y",
        "ön"
      ],
      [
        "ş",
        "e"
      ],
      [
        "b",
        "er"
      ],
      [
        "un",
        "da"
      ],
      [
        "lar",
        "ın"
      ],
      [
        "am",
        "er"
      ],
      [
        "m",
        "ü"
      ],
      [
        "v",
        "ar"
      ],
      [
        "ç",
        "ok"
      ],
      [
        "b",
        "üy"
      ],
      [
        "b",
        "e"
      ],
      [
        "|",
        "|"
      ],
      [
        "bağlan",
        "tılar"
      ],
      [
        "r",
        "es"
      ],
      [
        "il",
        "k"
      ],
      [
        "ya",
        "y"
      ],
      [
        "f",
        "or"
      ],
      [
        "b",
        "ak"
      ],
      [
        "in",
        "g"
      ],
      [
        "il",
        "en"
      ],
      [
        "da",
        "ki"
      ],
      [
        "ç",
        "ek"
      ],
      [
        "g",
        "ö"
      ],
      [
        "s",
        "al"
      ],
      [
        "s",
        "ır"
      ],
      [
        "amer",
        "ik"
      ],
      [
        "y",
        "üz"
      ],
      [
        "t",
        "r"
      ],
      [
        "y",
        "e"
      ],
      [
        "am",
        "a"
      ],
      [
        "f",
        "t"
      ],
      [
        "ş",
        "ar"
      ],
      [
        "le",
        "ş"
      ],
      [
        "sa",
        "v"
      ],
      [
        "19",
        "7"
      ],
      [
        "üz",
        "er"
      ],
      [
        "m",
        "as"
      ],
      [
        "ay",
        "an"
      ],
      [
        "un",
        "u"
      ],
      [
        "büy",
        "ük"
      ],
      [
        "h",
        "er"
      ],
      [
        "b",
        "o"
      ],
      [
        "i̇",
        "n"
      ],
      [
        "şt",
        "ur"
      ],
      [
        "iy",
        "et"
      ],
      [
        "p",
        "a"
      ],
      [
        "ıl",
        "an"
      ],
      [
        "is",
        "e"
      ],
      [
        "al",
        "t"
      ],
      [
        "ya",
        "t"
      ],
      [
        "d",
        "ün"
      ],
      [
        "şe",
        "h"
      ],
      [
        "cen",
        "ter"
      ],
      [
        "sp",
        "an"
      ],
      [
        "il",
        "di"
      ],
      [
        "am",
        "an"
      ],
      [
        "r",
        "en"
      ],
      [
        "s",
        "er"
      ],
      [
        "ğ",
        "er"
      ],
      [
        "f",
        "i"
      ],
      [
        "futbolcu",
        "ları"
      ],
      [
        "tak",
        "ım"
      ],
      [
        "iy",
        "le"
      ],
      [
        "b",
        "ar"
      ],
      [
        "l",
        "ü"
      ],
      [
        "k",
        "r"
      ],
      [
        "ar",
        "asında"
      ],
      [
        "um",
        "lu"
      ],
      [
        "a",
        "h"
      ],
      [
        "l",
        "o"
      ],
      [
        "iy",
        "on"
      ],
      [
        "te",
        "dir"
      ],
      [
        "kar",
        "ş"
      ],
      [
        "i",
        "ştir"
      ],
      [
        "mak",
        "tadır"
      ],
      [
        "dı",
        "ğı"
      ],
      [
        "s",
        "it"
      ],
      [
        "ka",
        "z"
      ],
      [
        "19",
        "6"
      ],
      [
        "şar",
        "kı"
      ],
      [
        "bağ",
        "lı"
      ],
      [
        "y",
        "ak"
      ],
      [
        "y",
        "or"
      ],
      [
        "m",
        "ış"
      ],
      [
        "k",
        "öy"
      ],
      [
        "k",
        "o"
      ],
      [
        "g",
        "il"
      ],
      [
        "b",
        "at"
      ],
      [
        "ul",
        "u"
      ],
      [
        "d",
        "ür"
      ],
      [
        "ol",
        "o"
      ],
      [
        "m",
        "o"
      ],
      [
        "ç",
        "al"
      ],
      [
        "t",
        "al"
      ],
      [
        "b",
        "as"
      ],
      [
        "yen",
        "i"
      ],
      [
        "p",
        "i"
      ],
      [
        "ç",
        "i"
      ],
      [
        "v",
        "i"
      ],
      [
        "el",
        "i"
      ],
      [
        "hi",
        "p"
      ],
      [
        "e",
        "di"
      ],
      [
        "t",
        "o"
      ],
      [
        "t",
        "ur"
      ],
      [
        "gi",
        "bi"
      ],
      [
        "ya",
        "s"
      ],
      [
        "de",
        "ki"
      ],
      [
        "el",
        "eri"
      ],
      [
        "us",
        "u"
      ],
      [
        "b",
        "un"
      ],
      [
        "f",
        "ran"
      ],
      [
        "dev",
        "let"
      ],
      [
        "ç",
        "e"
      ],
      [
        "g",
        "u"
      ],
      [
        "an",
        "d"
      ],
      [
        "bil",
        "ir"
      ],
      [
        "p",
        "er"
      ],
      [
        "v",
        "an"
      ],
      [
        "es",
        "ine"
      ],
      [
        "m",
        "erk"
      ],
      [
        "türk",
        "iye"
      ],
      [
        "k",
        "om"
      ],
      [
        "merk",
        "ez"
      ],
      [
        "g",
        "ru"
      ],
      [
        "n",
        "ı"
      ],
      [
        "un",
        "d"
      ],
      [
        "et",
        "ti"
      ],
      [
        "doğ",
        "umlu"
      ],
      [
        "ik",
        "i"
      ],
      [
        "a",
        "dı"
      ],
      [
        "sı",
        "z"
      ],
      [
        "ve",
        "ya"
      ],
      [
        "n",
        "i"
      ],
      [
        "is",
        "tan"
      ],
      [
        "ey",
        "e"
      ],
      [
        "c",
        "an"
      ],
      [
        "b",
        "ur"
      ],
      [
        "m",
        "üz"
      ],
      [
        "ayr",
        "ı"
      ],
      [
        "se",
        "ç"
      ],
      [
        "ler",
        "in"
      ],
      [
        "z",
        "aman"
      ],
      [
        "am",
        "p"
      ],
      [
        "1",
        "0"
      ],
      [
        "t",
        "en"
      ],
      [
        "de",
        "m"
      ],
      [
        "mi",
        "ştir"
      ],
      [
        "z",
        "ı"
      ],
      [
        "alar",
        "ı"
      ],
      [
        "la",
        "dı"
      ],
      [
        "y",
        "ük"
      ],
      [
        "kad",
        "ar"
      ],
      [
        "y",
        "le"
      ],
      [
        "c",
        "o"
      ],
      [
        "dün",
        "ya"
      ],
      [
        "es",
        "inde"
      ],
      [
        "d",
        "ül"
      ],
      [
        "çal",
        "ış"
      ],
      [
        "gen",
        "el"
      ],
      [
        "lar",
        "ında"
      ],
      [
        "la",
        "ş"
      ],
      [
        "c",
        "ar"
      ],
      [
        "i̇",
        "s"
      ],
      [
        "sav",
        "aş"
      ],
      [
        "s",
        "ek"
      ],
      [
        "e",
        "9"
      ],
      [
        "ç",
        "ı"
      ],
      [
        "u",
        "y"
      ],
      [
        "g",
        "ro"
      ],
      [
        "li",
        "ği"
      ],
      [
        "i",
        "ver"
      ],
      [
        "öz",
        "el"
      ],
      [
        "ıl",
        "ı"
      ],
      [
        "s",
        "en"
      ],
      [
        "st",
        "er"
      ],
      [
        "ü",
        "s"
      ],
      [
        "il",
        "eri"
      ],
      [
        "k",
        "or"
      ],
      [
        "g",
        "ir"
      ],
      [
        "st",
        "yle"
      ],
      [
        "ar",
        "ı"
      ],
      [
        "dön",
        "em"
      ],
      [
        "b",
        "r"
      ],
      [
        "st",
        "an"
      ],
      [
        "ü",
        "f"
      ],
      [
        "par",
        "t"
      ],
      [
        "h",
        "e"
      ],
      [
        "as",
        "yon"
      ],
      [
        "im",
        "i"
      ],
      [
        "ar",
        "d"
      ],
      [
        "et",
        "i"
      ],
      [
        "ü",
        "t"
      ],
      [
        "1",
        "5"
      ],
      [
        "ıl",
        "dı"
      ],
      [
        "sa",
        "hip"
      ],
      [
        "col",
        "span"
      ],
      [
        "1",
        "7"
      ],
      [
        "an",
        "ı"
      ],
      [
        "or",
        "ta"
      ],
      [
        "gör",
        "e"
      ],
      [
        "le",
        "ft"
      ],
      [
        "a",
        "f"
      ],
      [
        "in",
        "san"
      ],
      [
        "y",
        "et"
      ],
      [
        "lar",
        "da"
      ],
      [
        "d",
        "üz"
      ],
      [
        "al",
        "b"
      ],
      [
        "ö",
        "dül"
      ],
      [
        "lı",
        "ğı"
      ],
      [
        "i̇n",
        "gil"
      ],
      [
        "ha",
        "z"
      ],
      [
        "col",
        "or"
      ],
      [
        "ayrı",
        "ca"
      ],
      [
        "h",
        "ak"
      ],
      [
        "le",
        "m"
      ],
      [
        "k",
        "ara"
      ],
      [
        "ş",
        "i"
      ],
      [
        "ö",
        "ğ"
      ],
      [
        "t",
        "el"
      ],
      [
        "ba",
        "ck"
      ],
      [
        "t",
        "am"
      ],
      [
        "ş",
        "u"
      ],
      [
        "at",
        "i"
      ],
      [
        "c",
        "ek"
      ],
      [
        "19",
        "5"
      ],
      [
        "bir",
        "lik"
      ],
      [
        "ta",
        "ş"
      ],
      [
        "mek",
        "tedir"
      ],
      [
        "r",
        "am"
      ],
      [
        "in",
        "ci"
      ],
      [
        "kaz",
        "an"
      ],
      [
        "yay",
        "ın"
      ],
      [
        "p",
        "ol"
      ],
      [
        "n",
        "üf"
      ],
      [
        "oyun",
        "cu"
      ],
      [
        "gro",
        "und"
      ],
      [
        "baş",
        "kan"
      ],
      [
        "ka",
        "p"
      ],
      [
        "19",
        "4"
      ],
      [
        "sa",
        "ğ"
      ],
      [
        "ar",
        "t"
      ],
      [
        "1",
        "2"
      ],
      [
        "de",
        "ğ"
      ],
      [
        "1",
        "6"
      ],
      [
        "back",
        "ground"
      ],
      [
        "an",
        "cak"
      ],
      [
        "di",
        "ğer"
      ],
      [
        "f",
        "er"
      ],
      [
        "ş",
        "ek"
      ],
      [
        "t",
        "ir"
      ],
      [
        "y",
        "ol"
      ],
      [
        "b",
        "an"
      ],
      [
        "di",
        "z"
      ],
      [
        "gör",
        "ev"
      ],
      [
        "e",
        "ğ"
      ],
      [
        "v",
        "a"
      ],
      [
        "alb",
        "üm"
      ],
      [
        "doğumlu",
        "lar"
      ],
      [
        "l",
        "at"
      ],
      [
        "b",
        "en"
      ],
      [
        "ul",
        "us"
      ],
      [
        "lar",
        "a"
      ],
      [
        "s",
        "ez"
      ],
      [
        "yön",
        "et"
      ],
      [
        "ma",
        "ya"
      ],
      [
        "kad",
        "ın"
      ],
      [
        "ün",
        "iver"
      ],
      [
        "ar",
        "k"
      ],
      [
        "a",
        "ğ"
      ],
      [
        "m",
        "al"
      ],
      [
        "s",
        "ayı"
      ],
      [
        "al",
        "man"
      ],
      [
        "dü",
        "ş"
      ],
      [
        "m",
        "es"
      ],
      [
        "olo",
        "j"
      ],
      [
        "2",
        "1"
      ],
      [
        "ra",
        "f"
      ],
      [
        "u",
        "ç"
      ],
      [
        "r",
        "us"
      ],
      [
        "k",
        "il"
      ],
      [
        "i",
        "i"
      ],
      [
        "p",
        "o"
      ],
      [
        "h",
        "o"
      ],
      [
        "m",
        "iş"
      ],
      [
        "yüz",
        "yıl"
      ],
      [
        "gö",
        "ster"
      ],
      [
        "s",
        "is"
      ],
      [
        "an",
        "a"
      ],
      [
        "ay",
        "nı"
      ],
      [
        "s",
        "ay"
      ],
      [
        "ma",
        "d"
      ],
      [
        "g",
        "a"
      ],
      [
        "böl",
        "üm"
      ],
      [
        "ğ",
        "ini"
      ],
      [
        "t",
        "on"
      ],
      [
        "ç",
        "o"
      ],
      [
        "karş",
        "ı"
      ],
      [
        "c",
        "um"
      ],
      [
        ":",
        "#"
      ],
      [
        "şeh",
        "ir"
      ],
      [
        "sit",
        "esi"
      ],
      [
        "oldu",
        "ğu"
      ],
      [
        "y",
        "al"
      ],
      [
        "kur",
        "ul"
      ],
      [
        "sez",
        "on"
      ],
      [
        "i̇",
        "l"
      ],
      [
        "mu",
        "ştur"
      ],
      [
        "h",
        "ur"
      ],
      [
        "e",
        "de"
      ],
      [
        "y",
        "i"
      ],
      [
        "p",
        "or"
      ],
      [
        "f",
        "in"
      ],
      [
        "k",
        "ö"
      ],
      [
        "lar",
        "ını"
      ],
      [
        "ed",
        "ilm"
      ],
      [
        "ne",
        "den"
      ],
      [
        "s",
        "il"
      ],
      [
        "t",
        "ör"
      ],
      [
        "1",
        "4"
      ],
      [
        "i̇",
        "stan"
      ],
      [
        "h",
        "as"
      ],
      [
        "al",
        "ık"
      ],
      [
        "i̇stan",
        "bul"
      ],
      [
        "k",
        "et"
      ],
      [
        "es",
        "ki"
      ],
      [
        "g",
        "o"
      ],
      [
        "bir",
        "leş"
      ],
      [
        "sp",
        "or"
      ],
      [
        "g",
        "al"
      ],
      [
        "ül",
        "k"
      ],
      [
        "c",
        "in"
      ],
      [
        "h",
        "u"
      ],
      [
        "ed",
        "er"
      ],
      [
        "c",
        "ü"
      ],
      [
        "ar",
        "ak"
      ],
      [
        "m",
        "ayı"
      ],
      [
        "p",
        "h"
      ],
      [
        "ler",
        "ini"
      ],
      [
        "r",
        "ak"
      ],
      [
        "d",
        "is"
      ],
      [
        "s",
        "o"
      ],
      [
        "ğ",
        "ını"
      ],
      [
        "y",
        "o"
      ],
      [
        "il",
        "ç"
      ],
      [
        "h",
        "at"
      ],
      [
        "n",
        "de"
      ],
      [
        "d",
        "in"
      ],
      [
        "bel",
        "ir"
      ],
      [
        "1",
        "3"
      ],
      [
        "san",
        "at"
      ],
      [
        "en",
        "ler"
      ],
      [
        "ım",
        "ı"
      ],
      [
        "19",
        "3"
      ],
      [
        "k",
        "uz"
      ],
      [
        "tarih",
        "inde"
      ],
      [
        "ş",
        "amp"
      ],
      [
        "t",
        "or"
      ],
      [
        "ün",
        "de"
      ],
      [
        "an",
        "t"
      ],
      [
        "şamp",
        "iyon"
      ],
      [
        "an",
        "s"
      ],
      [
        "bulun",
        "an"
      ],
      [
        "n",
        "da"
      ],
      [
        "l",
        "is"
      ],
      [
        "f",
        "ak"
      ],
      [
        "k",
        "it"
      ],
      [
        "p",
        "r"
      ],
      [
        "v",
        "en"
      ],
      [
        "i",
        "p"
      ],
      [
        "birlik",
        "te"
      ],
      [
        "part",
        "isi"
      ],
      [
        "ı",
        "t"
      ],
      [
        "k",
        "m"
      ],
      [
        "g",
        "ü"
      ],
      [
        "cum",
        "hur"
      ],
      [
        "ma",
        "hal"
      ],
      [
        "di",
        "ği"
      ],
      [
        "a",
        "ç"
      ],
      [
        "ik",
        "a"
      ],
      [
        "amerik",
        "alı"
      ],
      [
        "e9",
        "e9"
      ],
      [
        "lar",
        "ının"
      ],
      [
        "el",
        "e"
      ],
      [
        "r",
        "et"
      ],
      [
        "av",
        "ru"
      ],
      [
        "t",
        "u"
      ],
      [
        "et",
        "k"
      ],
      [
        "a",
        "çık"
      ],
      [
        "g",
        "ür"
      ],
      [
        "g",
        "az"
      ],
      [
        "şt",
        "ı"
      ],
      [
        "h",
        "am"
      ],
      [
        "b",
        "in"
      ],
      [
        "b",
        "it"
      ],
      [
        "2",
        "2"
      ],
      [
        "ger",
        "çek"
      ],
      [
        "g",
        "an"
      ],
      [
        "mil",
        "l"
      ],
      [
        "un",
        "a"
      ],
      [
        "i̇ngil",
        "iz"
      ],
      [
        "d",
        "ar"
      ],
      [
        "ma",
        "ç"
      ],
      [
        "n",
        "o"
      ],
      [
        "yap",
        "tı"
      ],
      [
        "d",
        "ik"
      ],
      [
        "os",
        "man"
      ],
      [
        "t",
        "es"
      ],
      [
        "k",
        "ol"
      ],
      [
        "h",
        "em"
      ],
      [
        "s",
        "öz"
      ],
      [
        "l",
        "as"
      ],
      [
        "ü",
        "ş"
      ],
      [
        "ön",
        "em"
      ],
      [
        "w",
        "id"
      ],
      [
        "al",
        "dı"
      ],
      [
        "n",
        "ik"
      ],
      [
        "m",
        "er"
      ],
      [
        "avru",
        "pa"
      ],
      [
        "r",
        "ol"
      ],
      [
        "t",
        "ır"
      ],
      [
        "lu",
        "k"
      ],
      [
        "erk",
        "ek"
      ],
      [
        "wid",
        "th"
      ],
      [
        "s",
        "in"
      ],
      [
        "y",
        "ı"
      ],
      [
        "yük",
        "sek"
      ],
      [
        "k",
        "er"
      ],
      [
        "e",
        "f"
      ],
      [
        "un",
        "un"
      ],
      [
        "ey",
        "i"
      ],
      [
        "den",
        "iz"
      ],
      [
        "2",
        "5"
      ],
      [
        "ler",
        "de"
      ],
      [
        "inde",
        "ki"
      ],
      [
        "it",
        "i"
      ],
      [
        "düz",
        "en"
      ],
      [
        "ü",
        "st"
      ],
      [
        "\"",
        "|"
      ],
      [
        "gün",
        "ey"
      ],
      [
        "t",
        "üm"
      ],
      [
        "uy",
        "g"
      ],
      [
        "e",
        "b"
      ],
      [
        "m",
        "alar"
      ],
      [
        "kr",
        "al"
      ],
      [
        "h",
        "ay"
      ],
      [
        "b",
        "et"
      ],
      [
        "birleş",
        "ik"
      ],
      [
        "oldu",
        "ğ"
      ],
      [
        "gel",
        "en"
      ],
      [
        "j",
        "o"
      ],
      [
        "l",
        "in"
      ],
      [
        "p",
        "e"
      ],
      [
        "f",
        "es"
      ],
      [
        "gru",
        "p"
      ],
      [
        "lik",
        "le"
      ],
      [
        "ç",
        "ev"
      ],
      [
        "00",
        "0"
      ],
      [
        "mar",
        "t"
      ],
      [
        "bil",
        "in"
      ],
      [
        "yar",
        "ış"
      ],
      [
        "de",
        "l"
      ],
      [
        "olu",
        "ş"
      ],
      [
        "ler",
        "inin"
      ],
      [
        "iç",
        "er"
      ],
      [
        "nüf",
        "us"
      ],
      [
        "s",
        "at"
      ],
      [
        "n",
        "un"
      ],
      [
        "g",
        "h"
      ],
      [
        "i",
        "a"
      ],
      [
        "d",
        "il"
      ],
      [
        "m",
        "esi"
      ],
      [
        "k",
        "ır"
      ],
      [
        "ıl",
        "ır"
      ],
      [
        "2",
        "3"
      ],
      [
        "u",
        "st"
      ],
      [
        "s",
        "or"
      ],
      [
        "d",
        "on"
      ],
      [
        "amerik",
        "a"
      ],
      [
        "q",
        "u"
      ],
      [
        "u",
        "k"
      ],
      [
        "z",
        "a"
      ],
      [
        "b",
        "es"
      ],
      [
        "böl",
        "g"
      ],
      [
        "müz",
        "ik"
      ],
      [
        "1",
        "1"
      ],
      [
        "top",
        "lam"
      ],
      [
        "l",
        "ist"
      ],
      [
        "m",
        "ez"
      ],
      [
        "üniver",
        "sitesi"
      ],
      [
        "lar",
        "ına"
      ],
      [
        "kuz",
        "ey"
      ],
      [
        "ler",
        "inde"
      ],
      [
        "m",
        "on"
      ],
      [
        "ki",
        "ş"
      ],
      [
        "ba",
        "zı"
      ],
      [
        "f",
        "az"
      ],
      [
        "s",
        "un"
      ],
      [
        "s",
        "iz"
      ],
      [
        "ar",
        "ası"
      ],
      [
        "201",
        "0"
      ],
      [
        "3",
        "0"
      ],
      [
        "m",
        "in"
      ],
      [
        "i",
        "c"
      ],
      [
        "şek",
        "il"
      ],
      [
        "v",
        "al"
      ],
      [
        "m",
        "at"
      ],
      [
        "bil",
        "im"
      ],
      [
        "f",
        "ark"
      ],
      [
        "at",
        "or"
      ],
      [
        "e",
        "c"
      ],
      [
        "ün",
        "ü"
      ],
      [
        "b",
        "ay"
      ],
      [
        "oğ",
        "lu"
      ],
      [
        "olu",
        "ştur"
      ],
      [
        "ı",
        "s"
      ],
      [
        "n",
        "is"
      ],
      [
        "s",
        "am"
      ],
      [
        "o",
        "g"
      ],
      [
        "ad",
        "lı"
      ],
      [
        "u",
        "ş"
      ],
      [
        "le",
        "ştir"
      ],
      [
        "öğ",
        "ren"
      ],
      [
        "lan",
        "an"
      ],
      [
        "ön",
        "ce"
      ],
      [
        "hal",
        "k"
      ],
      [
        "eğ",
        "it"
      ],
      [
        "aş",
        "a"
      ],
      [
        "eş",
        "it"
      ],
      [
        "t",
        "as"
      ],
      [
        "k",
        "ası"
      ],
      [
        "y",
        "u"
      ],
      [
        "v",
        "et"
      ],
      [
        "osman",
        "lı"
      ],
      [
        "h",
        "en"
      ],
      [
        "s",
        "iyon"
      ],
      [
        "ş",
        "ir"
      ],
      [
        "c",
        "el"
      ],
      [
        "lan",
        "dır"
      ],
      [
        "iy",
        "or"
      ],
      [
        "cumhur",
        "iyet"
      ],
      [
        "yaş",
        "ayan"
      ],
      [
        "baş",
        "ladı"
      ],
      [
        "önem",
        "li"
      ],
      [
        "h",
        "ük"
      ],
      [
        "öy",
        "le"
      ],
      [
        "ço",
        "cu"
      ],
      [
        "or",
        "d"
      ],
      [
        "iy",
        "i"
      ],
      [
        "g",
        "ar"
      ],
      [
        "ger",
        "ek"
      ],
      [
        "p",
        "l"
      ],
      [
        "lan",
        "dı"
      ],
      [
        "ş",
        "a"
      ],
      [
        "b",
        "al"
      ],
      [
        "de",
        "t"
      ],
      [
        "g",
        "et"
      ],
      [
        "il",
        "g"
      ],
      [
        "il",
        "ik"
      ],
      [
        "s",
        "es"
      ],
      [
        "2",
        "4"
      ],
      [
        "ür",
        "et"
      ],
      [
        "s",
        "ar"
      ],
      [
        "har",
        "ek"
      ],
      [
        ".",
        "."
      ],
      [
        "ati",
        "on"
      ],
      [
        "e",
        "den"
      ],
      [
        "ıl",
        "ık"
      ],
      [
        "mill",
        "î"
      ],
      [
        "bir",
        "i"
      ],
      [
        "h",
        "il"
      ],
      [
        "b",
        "ey"
      ],
      [
        "ü",
        "p"
      ],
      [
        "a",
        "bilir"
      ],
      [
        ")",
        "."
      ],
      [
        "ro",
        "man"
      ],
      [
        "futbolcu",
        "lar"
      ],
      [
        "tam",
        "am"
      ],
      [
        "li",
        "ğ"
      ],
      [
        "len",
        "dir"
      ],
      [
        "bel",
        "edi"
      ],
      [
        "y",
        "alı"
      ],
      [
        "g",
        "öz"
      ],
      [
        "ler",
        "e"
      ],
      [
        "ıl",
        "mıştır"
      ],
      [
        "ek",
        "im"
      ],
      [
        "ka",
        "ç"
      ],
      [
        "al",
        "et"
      ],
      [
        "de",
        "s"
      ],
      [
        "yaz",
        "ar"
      ],
      [
        "da",
        "ğ"
      ],
      [
        "ı",
        "ştır"
      ],
      [
        "h",
        "r"
      ],
      [
        "c",
        "om"
      ],
      [
        "h",
        "n"
      ],
      [
        "ödül",
        "ü"
      ],
      [
        "dur",
        "um"
      ],
      [
        "at",
        "ik"
      ],
      [
        "k",
        "es"
      ],
      [
        "ilç",
        "esine"
      ],
      [
        "yap",
        "ılan"
      ],
      [
        "yar",
        "dı"
      ],
      [
        "uz",
        "un"
      ],
      [
        "s",
        "ev"
      ],
      [
        "g",
        "ram"
      ],
      [
        "in",
        "a"
      ],
      [
        "il",
        "ir"
      ],
      [
        "d",
        "ol"
      ],
      [
        "ab",
        "d"
      ],
      [
        "b",
        "g"
      ],
      [
        "lar",
        "dan"
      ],
      [
        "on",
        "om"
      ],
      [
        "k",
        "üç"
      ],
      [
        "i̇",
        "tal"
      ],
      [
        "a",
        "c"
      ],
      [
        "k",
        "ül"
      ],
      [
        "par",
        "ator"
      ],
      [
        "kar",
        "iy"
      ],
      [
        "m",
        "uz"
      ],
      [
        "ında",
        "ki"
      ],
      [
        "şekil",
        "de"
      ],
      [
        "bg",
        "color"
      ],
      [
        "y",
        "un"
      ],
      [
        "da",
        "v"
      ],
      [
        "lu",
        "ğu"
      ],
      [
        "yap",
        "ı"
      ],
      [
        "ir",
        "an"
      ],
      [
        "er",
        "ek"
      ],
      [
        "film",
        "ler"
      ],
      [
        "sür",
        "e"
      ],
      [
        "değ",
        "iş"
      ],
      [
        "200",
        "8"
      ],
      [
        "insan",
        "lar"
      ],
      [
        "s",
        "ine"
      ],
      [
        "d",
        "al"
      ],
      [
        "mayı",
        "s"
      ],
      [
        "t",
        "ik"
      ],
      [
        "l",
        "ül"
      ],
      [
        "201",
        "2"
      ],
      [
        "o",
        "cak"
      ],
      [
        "bir",
        "çok"
      ],
      [
        "k",
        "im"
      ],
      [
        "fin",
        "al"
      ],
      [
        "2",
        "8"
      ],
      [
        "s",
        "ch"
      ],
      [
        "200",
        "9"
      ],
      [
        "ilm",
        "iştir"
      ],
      [
        "s",
        "h"
      ],
      [
        "k",
        "em"
      ],
      [
        "üzer",
        "e"
      ],
      [
        "küç",
        "ük"
      ],
      [
        "kı",
        "z"
      ],
      [
        "n",
        "et"
      ],
      [
        "f",
        "f"
      ],
      [
        "doğ",
        "u"
      ],
      [
        "k",
        "as"
      ],
      [
        "dev",
        "am"
      ],
      [
        "olduğ",
        "unu"
      ],
      [
        "ta",
        "h"
      ],
      [
        "t",
        "ut"
      ],
      [
        "en",
        "t"
      ],
      [
        "o",
        "d"
      ],
      [
        "ler",
        "ine"
      ],
      [
        "m",
        "ed"
      ],
      [
        "m",
        "em"
      ],
      [
        "yaş",
        "am"
      ],
      [
        "201",
        "1"
      ],
      [
        "tarih",
        "i"
      ],
      [
        "ol",
        "mak"
      ],
      [
        "üzer",
        "ine"
      ],
      [
        "lar",
        "ından"
      ],
      [
        "oy",
        "n"
      ],
      [
        "c",
        "on"
      ],
      [
        "an",
        "lam"
      ],
      [
        "n",
        "or"
      ],
      [
        "s",
        "os"
      ],
      [
        "ne",
        "w"
      ],
      [
        "200",
        "7"
      ],
      [
        "get",
        "ir"
      ],
      [
        "ku",
        "p"
      ],
      [
        "v",
        "il"
      ],
      [
        "or",
        "i"
      ],
      [
        "ey",
        "lül"
      ],
      [
        "d",
        "ör"
      ],
      [
        "kası",
        "m"
      ],
      [
        "fran",
        "sız"
      ],
      [
        "ın",
        "ır"
      ],
      [
        "200",
        "0"
      ],
      [
        "li",
        "g"
      ],
      [
        "ka",
        "bul"
      ],
      [
        "son",
        "uç"
      ],
      [
        "g",
        "üç"
      ],
      [
        "f",
        "e"
      ],
      [
        "ard",
        "ından"
      ],
      [
        "ç",
        "eşit"
      ],
      [
        "iç",
        "inde"
      ],
      [
        "t",
        "ü"
      ],
      [
        "is",
        "im"
      ],
      [
        "savaş",
        "ı"
      ],
      [
        "yardı",
        "m"
      ],
      [
        "uyg",
        "ul"
      ],
      [
        "par",
        "ti"
      ],
      [
        "lı",
        "ğ"
      ],
      [
        "haz",
        "iran"
      ],
      [
        "ı",
        "z"
      ],
      [
        "200",
        "6"
      ],
      [
        "ulus",
        "lar"
      ],
      [
        "i̇",
        "m"
      ],
      [
        "da",
        "e"
      ],
      [
        "seç",
        "im"
      ],
      [
        "ba",
        "h"
      ],
      [
        "öl",
        "üm"
      ],
      [
        "t",
        "ra"
      ],
      [
        "ed",
        "ildi"
      ],
      [
        "kar",
        "ak"
      ],
      [
        "ev",
        "iz"
      ],
      [
        "ar",
        "alık"
      ],
      [
        "m",
        "eye"
      ],
      [
        "s",
        "k"
      ],
      [
        "çık",
        "ar"
      ],
      [
        "2",
        "6"
      ],
      [
        "b",
        "or"
      ],
      [
        "lam",
        "a"
      ],
      [
        "il",
        "iş"
      ],
      [
        "n",
        "es"
      ],
      [
        "g",
        "it"
      ],
      [
        "mu",
        "ş"
      ],
      [
        "yak",
        "laş"
      ],
      [
        "k",
        "ez"
      ],
      [
        "g",
        "ol"
      ],
      [
        "l",
        "es"
      ],
      [
        "ç",
        "iler"
      ],
      [
        "sis",
        "tem"
      ],
      [
        "ak",
        "a"
      ],
      [
        "s",
        "ü"
      ],
      [
        "ar",
        "ka"
      ],
      [
        "oğ",
        "raf"
      ],
      [
        "on",
        "ya"
      ],
      [
        "ler",
        "inden"
      ],
      [
        "devlet",
        "leri"
      ],
      [
        "si",
        "yas"
      ],
      [
        "uz",
        "ak"
      ],
      [
        "faz",
        "la"
      ],
      [
        "eğit",
        "im"
      ],
      [
        "tem",
        "muz"
      ],
      [
        "m",
        "ey"
      ],
      [
        "nis",
        "an"
      ],
      [
        "bun",
        "un"
      ],
      [
        "bak",
        "an"
      ],
      [
        "s",
        "ur"
      ],
      [
        "am",
        "il"
      ],
      [
        "da",
        "ş"
      ],
      [
        "var",
        "dır"
      ],
      [
        "h",
        "ol"
      ],
      [
        "çocu",
        "k"
      ],
      [
        "iti",
        "bar"
      ],
      [
        "mas",
        "ına"
      ],
      [
        "i̇l",
        "k"
      ],
      [
        "a",
        "ğu"
      ],
      [
        "g",
        "ur"
      ],
      [
        "al",
        "ın"
      ],
      [
        "p",
        "at"
      ],
      [
        "j",
        "ap"
      ],
      [
        "ğ",
        "ü"
      ],
      [
        "st",
        "os"
      ],
      [
        "siyas",
        "et"
      ],
      [
        "b",
        "eş"
      ],
      [
        "u",
        "cu"
      ],
      [
        "2",
        "7"
      ],
      [
        "ol",
        "muştur"
      ],
      [
        "s",
        "ını"
      ],
      [
        "ağu",
        "stos"
      ],
      [
        "öl",
        "enler"
      ],
      [
        "r",
        "ek"
      ],
      [
        "201",
        "4"
      ],
      [
        "r",
        "y"
      ],
      [
        "ıl",
        "mış"
      ],
      [
        "ün",
        "e"
      ],
      [
        "s",
        "te"
      ],
      [
        "tek",
        "nik"
      ],
      [
        "doğ",
        "ru"
      ],
      [
        "top",
        "l"
      ],
      [
        "201",
        "3"
      ],
      [
        "z",
        "or"
      ],
      [
        "l",
        "y"
      ],
      [
        "k",
        "el"
      ],
      [
        "mil",
        "let"
      ],
      [
        "takım",
        "ı"
      ],
      [
        "el",
        "ik"
      ],
      [
        "ken",
        "di"
      ],
      [
        "l",
        "ük"
      ],
      [
        "on",
        "u"
      ],
      [
        "es",
        "er"
      ],
      [
        "si",
        "ya"
      ],
      [
        "ir",
        "e"
      ],
      [
        "eviz",
        "yon"
      ],
      [
        "ken",
        "d"
      ],
      [
        "p",
        "s"
      ],
      [
        "sayı",
        "sı"
      ],
      [
        "g",
        "eri"
      ],
      [
        "g",
        "ı"
      ],
      [
        "200",
        "5"
      ],
      [
        "yak",
        "ın"
      ],
      [
        "p",
        "lan"
      ],
      [
        "ç",
        "in"
      ],
      [
        "h",
        "iz"
      ],
      [
        "ara",
        "ştır"
      ],
      [
        "ken",
        "t"
      ],
      [
        "p",
        "et"
      ],
      [
        "201",
        "5"
      ],
      [
        "r",
        "ı"
      ],
      [
        "uluslar",
        "arası"
      ],
      [
        "fran",
        "sa"
      ],
      [
        "ik",
        "inci"
      ],
      [
        "at",
        "an"
      ],
      [
        "k",
        "ü"
      ],
      [
        "b",
        "ek"
      ],
      [
        "ed",
        "ilen"
      ],
      [
        "el",
        "ek"
      ],
      [
        "fark",
        "lı"
      ],
      [
        "l",
        "ayan"
      ],
      [
        "m",
        "ir"
      ],
      [
        "kül",
        "tür"
      ],
      [
        "pro",
        "gram"
      ],
      [
        "tel",
        "evizyon"
      ],
      [
        "ti",
        "yat"
      ],
      [
        "b",
        "ile"
      ],
      [
        "kup",
        "ası"
      ],
      [
        "harek",
        "et"
      ],
      [
        "bir",
        "liği"
      ],
      [
        "=\"",
        "#"
      ],
      [
        "y",
        "um"
      ],
      [
        "kı",
        "sa"
      ],
      [
        "kı",
        "s"
      ],
      [
        "p",
        "an"
      ],
      [
        "c",
        "er"
      ],
      [
        "gen",
        "ç"
      ],
      [
        "ada",
        "y"
      ],
      [
        "başkan",
        "ı"
      ],
      [
        "tiyat",
        "ro"
      ],
      [
        "as",
        "ker"
      ],
      [
        "w",
        "il"
      ],
      [
        "a",
        "cak"
      ],
      [
        "201",
        "6"
      ],
      [
        "bil",
        "g"
      ],
      [
        "en",
        "in"
      ],
      [
        "mahal",
        "le"
      ],
      [
        "k",
        "in"
      ],
      [
        "şu",
        "bat"
      ],
      [
        "200",
        "4"
      ],
      [
        "s",
        "im"
      ],
      [
        "bat",
        "ı"
      ],
      [
        "f",
        "amil"
      ],
      [
        "ça",
        "ğ"
      ],
      [
        "sır",
        "asında"
      ],
      [
        "an",
        "kara"
      ],
      [
        "en",
        "er"
      ],
      [
        "yıl",
        "dı"
      ],
      [
        "e",
        "p"
      ],
      [
        "m",
        "am"
      ],
      [
        "s",
        "c"
      ],
      [
        "b",
        "oyun"
      ],
      [
        "kat",
        "ıl"
      ],
      [
        "is",
        "inde"
      ],
      [
        "alman",
        "ya"
      ],
      [
        "şt",
        "i"
      ],
      [
        "yar",
        "ı"
      ],
      [
        "es",
        "inin"
      ],
      [
        "lan",
        "d"
      ],
      [
        "şeh",
        "r"
      ],
      [
        "yun",
        "an"
      ],
      [
        "film",
        "leri"
      ],
      [
        "r",
        "at"
      ],
      [
        "s",
        "ınır"
      ],
      [
        "de",
        "st"
      ],
      [
        "gel",
        "iştir"
      ],
      [
        "p",
        "u"
      ],
      [
        "ki",
        "şi"
      ],
      [
        "üzer",
        "inde"
      ],
      [
        "geç",
        "ir"
      ],
      [
        "şir",
        "ket"
      ],
      [
        "merkez",
        "i"
      ],
      [
        "2",
        "9"
      ],
      [
        "oloj",
        "i"
      ],
      [
        "gör",
        "ün"
      ],
      [
        "l",
        "on"
      ],
      [
        "al",
        "ya"
      ],
      [
        "g",
        "em"
      ],
      [
        "s",
        "em"
      ],
      [
        "kur",
        "ulu"
      ],
      [
        "i̇m",
        "parator"
      ],
      [
        "ün",
        "ün"
      ],
      [
        "l",
        "ak"
      ],
      [
        "ilg",
        "ili"
      ],
      [
        "g",
        "in"
      ],
      [
        "ov",
        "a"
      ],
      [
        "ek",
        "tedir"
      ],
      [
        "l",
        "im"
      ],
      [
        "st",
        "a"
      ],
      [
        "ilm",
        "iş"
      ],
      [
        "sal",
        "dır"
      ],
      [
        "ku",
        "v"
      ],
      [
        "20",
        "20"
      ],
      [
        "şt",
        "ür"
      ],
      [
        "5",
        "0"
      ],
      [
        "d",
        "r"
      ],
      [
        "c",
        "am"
      ],
      [
        "m",
        "aları"
      ],
      [
        "ulus",
        "al"
      ],
      [
        "yeni",
        "den"
      ],
      [
        "sos",
        "yal"
      ],
      [
        "hak",
        "k"
      ],
      [
        "ma",
        "z"
      ],
      [
        "hay",
        "van"
      ],
      [
        "ını",
        "z"
      ],
      [
        "sa",
        "de"
      ],
      [
        "du",
        "ğu"
      ],
      [
        "çeşit",
        "li"
      ],
      [
        "b",
        "oy"
      ],
      [
        "z",
        "i"
      ],
      [
        "hiz",
        "met"
      ],
      [
        "m",
        "it"
      ],
      [
        "e9e9",
        "e9"
      ],
      [
        "on",
        "un"
      ],
      [
        "vi",
        "de"
      ],
      [
        "j",
        "a"
      ],
      [
        "düş",
        "ün"
      ],
      [
        "as",
        "t"
      ],
      [
        "de",
        "f"
      ],
      [
        "u",
        "c"
      ],
      [
        "ch",
        "i"
      ],
      [
        "de",
        "ğer"
      ],
      [
        "le",
        "y"
      ],
      [
        "al",
        "tı"
      ],
      [
        "s",
        "ol"
      ],
      [
        "201",
        "8"
      ],
      [
        "r",
        "ar"
      ],
      [
        "üs",
        "ü"
      ],
      [
        "yer",
        "leş"
      ],
      [
        "f",
        "ik"
      ],
      [
        "alt",
        "ın"
      ],
      [
        "ol",
        "im"
      ],
      [
        "201",
        "7"
      ],
      [
        "bak",
        "ınız"
      ],
      [
        "ben",
        "z"
      ],
      [
        "im",
        "e"
      ],
      [
        "yap",
        "ım"
      ],
      [
        "tan",
        "ım"
      ],
      [
        "gaz",
        "et"
      ],
      [
        "kit",
        "ap"
      ],
      [
        "n",
        "er"
      ],
      [
        "19",
        "0"
      ],
      [
        "t",
        "ay"
      ],
      [
        "y",
        "ok"
      ],
      [
        "mas",
        "ını"
      ],
      [
        "e",
        "x"
      ],
      [
        "len",
        "en"
      ],
      [
        "neden",
        "iyle"
      ],
      [
        "av",
        "ust"
      ],
      [
        "kurul",
        "an"
      ],
      [
        "orta",
        "ya"
      ],
      [
        "k",
        "ür"
      ],
      [
        "kar",
        "ar"
      ],
      [
        "s",
        "ak"
      ],
      [
        "r",
        "is"
      ],
      [
        "g",
        "ön"
      ],
      [
        "par",
        "ç"
      ],
      [
        "tem",
        "el"
      ],
      [
        "f",
        "il"
      ],
      [
        "ma",
        "h"
      ],
      [
        "k",
        "e"
      ],
      [
        "w",
        "e"
      ],
      [
        "sade",
        "ce"
      ],
      [
        "yıl",
        "ı"
      ],
      [
        "kullan",
        "ıl"
      ],
      [
        "yaklaş",
        "ık"
      ],
      [
        "j",
        "e"
      ],
      [
        "j",
        "i"
      ],
      [
        "gör",
        "ül"
      ],
      [
        "baş",
        "arı"
      ],
      [
        "le",
        "me"
      ],
      [
        "oğ",
        "un"
      ],
      [
        "dest",
        "ek"
      ],
      [
        "s",
        "ov"
      ],
      [
        "200",
        "2"
      ],
      [
        "ha",
        "va"
      ],
      [
        "rus",
        "ya"
      ],
      [
        "m",
        "ev"
      ],
      [
        "gel",
        "iş"
      ],
      [
        "olu",
        "p"
      ],
      [
        "dör",
        "t"
      ],
      [
        "ra",
        "d"
      ],
      [
        "olim",
        "pi"
      ],
      [
        "iz",
        "m"
      ],
      [
        "kuv",
        "vet"
      ],
      [
        "ler",
        "den"
      ],
      [
        "karak",
        "ter"
      ],
      [
        "em",
        "e"
      ],
      [
        "ar",
        "i"
      ],
      [
        "i̇",
        "span"
      ],
      [
        "yıl",
        "ları"
      ],
      [
        "p",
        "op"
      ],
      [
        "m",
        "ik"
      ],
      [
        "gur",
        "bet"
      ],
      [
        "gh",
        "t"
      ],
      [
        "bağ",
        "ım"
      ],
      [
        "yor",
        "du"
      ],
      [
        "üm",
        "üz"
      ],
      [
        "20",
        "19"
      ],
      [
        "il",
        "inin"
      ],
      [
        "n",
        "u"
      ],
      [
        "sanat",
        "çı"
      ],
      [
        "kon",
        "u"
      ],
      [
        "oyun",
        "ları"
      ],
      [
        "dı",
        "k"
      ],
      [
        "s",
        "ul"
      ],
      [
        "in",
        "c"
      ],
      [
        "k",
        "ut"
      ],
      [
        "ba",
        "b"
      ],
      [
        "do",
        "k"
      ],
      [
        "boyun",
        "ca"
      ],
      [
        "ek",
        "onom"
      ],
      [
        "ek",
        "tör"
      ],
      [
        "is",
        "yon"
      ],
      [
        "iler",
        "in"
      ],
      [
        "200",
        "3"
      ],
      [
        "jo",
        "hn"
      ],
      [
        "öğ",
        "ret"
      ],
      [
        "ha",
        "yat"
      ],
      [
        "lar",
        "la"
      ],
      [
        "olimpi",
        "yat"
      ],
      [
        "yönet",
        "men"
      ],
      [
        "yay",
        "ım"
      ],
      [
        "pro",
        "fes"
      ],
      [
        "es",
        "ini"
      ],
      [
        "ı",
        "cı"
      ],
      [
        "as",
        "ıl"
      ],
      [
        "v",
        "ol"
      ],
      [
        "res",
        "mi"
      ],
      [
        "ol",
        "ay"
      ],
      [
        "or",
        "du"
      ],
      [
        "şarkı",
        "cı"
      ],
      [
        "m",
        "or"
      ],
      [
        "t",
        "ran"
      ],
      [
        "m",
        "ayan"
      ],
      [
        "ü",
        "c"
      ],
      [
        "b",
        "eri"
      ],
      [
        "ğ",
        "in"
      ],
      [
        "bulun",
        "maktadır"
      ],
      [
        "r",
        "ed"
      ],
      [
        "par",
        "is"
      ],
      [
        "zaman",
        "da"
      ],
      [
        "ter",
        "e"
      ],
      [
        "gün",
        "ümüz"
      ],
      [
        "i̇",
        "yi"
      ],
      [
        "on",
        "a"
      ],
      [
        "da",
        "k"
      ],
      [
        "dem",
        "ir"
      ],
      [
        "t",
        "in"
      ],
      [
        "tas",
        "ar"
      ],
      [
        "gen",
        "iş"
      ],
      [
        "genel",
        "likle"
      ],
      [
        "sov",
        "yet"
      ],
      [
        "e",
        "ur"
      ],
      [
        "ro",
        "s"
      ],
      [
        "gü",
        "ven"
      ],
      [
        "da",
        "hil"
      ],
      [
        "200",
        "1"
      ],
      [
        "an",
        "an"
      ],
      [
        "in",
        "t"
      ],
      [
        "g",
        "r"
      ],
      [
        "vide",
        "o"
      ],
      [
        "on",
        "e"
      ],
      [
        "öl",
        "ç"
      ],
      [
        "böl",
        "ge"
      ],
      [
        "ra",
        "ğ"
      ],
      [
        "c",
        "ha"
      ],
      [
        "m",
        "y"
      ],
      [
        "lu",
        "ğ"
      ],
      [
        "us",
        "unda"
      ],
      [
        "iliş",
        "k"
      ],
      [
        "tem",
        "sil"
      ],
      [
        "in",
        "ter"
      ],
      [
        "du",
        "y"
      ],
      [
        "edilm",
        "iştir"
      ],
      [
        "s",
        "ık"
      ],
      [
        "d",
        "ra"
      ],
      [
        "a",
        "u"
      ],
      [
        "diz",
        "i"
      ],
      [
        "öl",
        "dür"
      ],
      [
        "\"",
        ","
      ],
      [
        "ku",
        "ş"
      ],
      [
        "list",
        "esi"
      ],
      [
        "gu",
        "e"
      ],
      [
        "b",
        "ır"
      ],
      [
        "w",
        "eb"
      ],
      [
        "ok",
        "ul"
      ],
      [
        "g",
        "or"
      ],
      [
        "haz",
        "ır"
      ],
      [
        "f",
        "o"
      ],
      [
        "kar",
        "de"
      ],
      [
        "i̇",
        "z"
      ],
      [
        "h",
        "ız"
      ],
      [
        "bağım",
        "sız"
      ],
      [
        "i̇ngil",
        "tere"
      ],
      [
        "t",
        "v"
      ],
      [
        "hük",
        "û"
      ],
      [
        "f",
        "c"
      ],
      [
        "ol",
        "ma"
      ],
      [
        "b",
        "iy"
      ],
      [
        "199",
        "0"
      ],
      [
        "ro",
        "ma"
      ],
      [
        "hükû",
        "met"
      ],
      [
        "p",
        "aşa"
      ],
      [
        "sını",
        "f"
      ],
      [
        "alt",
        "ında"
      ],
      [
        "is",
        "te"
      ],
      [
        "c",
        "oğraf"
      ],
      [
        "yüzyıl",
        "da"
      ],
      [
        "bas",
        "ket"
      ],
      [
        "yönet",
        "im"
      ],
      [
        "yük",
        "sel"
      ],
      [
        "ara",
        "p"
      ],
      [
        "18",
        "9"
      ],
      [
        "ti",
        "on"
      ],
      [
        "ti",
        "f"
      ],
      [
        "amerik",
        "an"
      ],
      [
        "p",
        "ek"
      ],
      [
        "z",
        "en"
      ],
      [
        "ya",
        "sa"
      ],
      [
        "a",
        "it"
      ],
      [
        "özel",
        "likle"
      ],
      [
        "gru",
        "bu"
      ],
      [
        "4",
        "0"
      ],
      [
        "y",
        "ür"
      ],
      [
        "yer",
        "ine"
      ],
      [
        "değ",
        "il"
      ],
      [
        "s",
        "ey"
      ],
      [
        "nüf",
        "usu"
      ],
      [
        "a",
        "il"
      ],
      [
        "baş",
        "ar"
      ],
      [
        "bır",
        "ak"
      ],
      [
        "merkez",
        "ine"
      ],
      [
        "199",
        "9"
      ],
      [
        "t",
        "y"
      ],
      [
        "son",
        "r"
      ],
      [
        "l",
        "or"
      ],
      [
        "mü",
        "ştür"
      ],
      [
        "yaptı",
        "ğı"
      ],
      [
        "cumhuriyet",
        "i"
      ],
      [
        "me",
        "c"
      ],
      [
        "p",
        "en"
      ],
      [
        "c",
        "al"
      ],
      [
        "kazan",
        "dı"
      ],
      [
        "m",
        "m"
      ],
      [
        "ak",
        "tadır"
      ],
      [
        "ul",
        "aş"
      ],
      [
        "ev",
        "i"
      ],
      [
        "iy",
        "di"
      ],
      [
        "de",
        "ği"
      ],
      [
        "kom",
        "ut"
      ],
      [
        "for",
        "m"
      ],
      [
        "ün",
        "den"
      ],
      [
        "os",
        "u"
      ],
      [
        "ken",
        "dis"
      ],
      [
        "af",
        "r"
      ],
      [
        "ve",
        "ç"
      ],
      [
        "gel",
        "er"
      ],
      [
        "g",
        "ın"
      ],
      [
        "ka",
        "v"
      ],
      [
        "han",
        "e"
      ],
      [
        "mad",
        "de"
      ],
      [
        "karş",
        "ıl"
      ],
      [
        "d",
        "y"
      ],
      [
        "6",
        "0"
      ],
      [
        "as",
        "ına"
      ],
      [
        "coğraf",
        "ya"
      ],
      [
        "dem",
        "ok"
      ],
      [
        "el",
        "en"
      ],
      [
        "a",
        "j"
      ],
      [
        "dir",
        "ektör"
      ],
      [
        "i̇",
        "k"
      ],
      [
        "pol",
        "it"
      ],
      [
        "ç",
        "alı"
      ],
      [
        "tr",
        "ol"
      ],
      [
        "millet",
        "ve"
      ],
      [
        "k",
        "eş"
      ],
      [
        "ğ",
        "ında"
      ],
      [
        "etti",
        "ği"
      ],
      [
        "m",
        "ut"
      ],
      [
        "baş",
        "ka"
      ],
      [
        "ş",
        "ey"
      ],
      [
        "1",
        "00"
      ],
      [
        "op",
        "er"
      ],
      [
        "a",
        "e"
      ],
      [
        "i̇ngiliz",
        "ce"
      ],
      [
        "fak",
        "at"
      ],
      [
        "i̇tal",
        "ya"
      ],
      [
        "kul",
        "üp"
      ],
      [
        "an",
        "laş"
      ],
      [
        "z",
        "e"
      ],
      [
        "y",
        "olu"
      ],
      [
        "199",
        "8"
      ],
      [
        "ey",
        "alet"
      ],
      [
        "c",
        "or"
      ],
      [
        "k",
        "am"
      ],
      [
        "mahal",
        "l"
      ],
      [
        "b",
        "iz"
      ],
      [
        "gel",
        "di"
      ],
      [
        "yer",
        "el"
      ],
      [
        "şampiyon",
        "ası"
      ],
      [
        "famil",
        "yas"
      ],
      [
        "b",
        "n"
      ],
      [
        "sır",
        "a"
      ],
      [
        "ulu",
        "k"
      ],
      [
        "dev",
        "r"
      ],
      [
        "w",
        "a"
      ],
      [
        "li",
        "gi"
      ],
      [
        "basket",
        "bol"
      ],
      [
        "bulun",
        "ur"
      ],
      [
        "m",
        "us"
      ],
      [
        "et",
        "mek"
      ],
      [
        "ra",
        "fi"
      ],
      [
        "beledi",
        "y"
      ],
      [
        "tarih",
        "çe"
      ],
      [
        "c",
        "iler"
      ],
      [
        "ul",
        "an"
      ],
      [
        "sine",
        "ma"
      ],
      [
        "i̇",
        "ş"
      ],
      [
        "a",
        "ca"
      ],
      [
        "ber",
        "t"
      ],
      [
        "rağ",
        "men"
      ],
      [
        "lar",
        "dır"
      ],
      [
        "elek",
        "tr"
      ],
      [
        "hakk",
        "ında"
      ],
      [
        "t",
        "at"
      ],
      [
        "g",
        "re"
      ],
      [
        "top",
        "rak"
      ],
      [
        "o",
        "z"
      ],
      [
        "20",
        "21"
      ],
      [
        "y",
        "dı"
      ],
      [
        "w",
        "or"
      ],
      [
        "asyon",
        "u"
      ],
      [
        "n",
        "ek"
      ],
      [
        "mil",
        "yon"
      ],
      [
        "f",
        "el"
      ],
      [
        "sav",
        "un"
      ],
      [
        "iy",
        "an"
      ],
      [
        "ön",
        "c"
      ],
      [
        "ı",
        "yla"
      ],
      [
        "f",
        "iz"
      ],
      [
        "ıl",
        "ması"
      ],
      [
        "yardım",
        "cı"
      ],
      [
        "yor",
        "k"
      ],
      [
        "gerçek",
        "leştir"
      ],
      [
        "h",
        "is"
      ],
      [
        "k",
        "op"
      ],
      [
        "sil",
        "ah"
      ],
      [
        "me",
        "h"
      ],
      [
        "in",
        "ce"
      ],
      [
        "gön",
        "der"
      ],
      [
        "b",
        "y"
      ],
      [
        "taş",
        "ı"
      ],
      [
        "iş",
        "im"
      ],
      [
        "ist",
        "ik"
      ],
      [
        "w",
        "in"
      ],
      [
        "n",
        "ok"
      ],
      [
        "s",
        "eri"
      ],
      [
        "ler",
        "le"
      ],
      [
        "çık",
        "tı"
      ],
      [
        "199",
        "6"
      ],
      [
        "m",
        "ot"
      ],
      [
        "ha",
        "f"
      ],
      [
        "uzak",
        "lık"
      ],
      [
        "belir",
        "t"
      ],
      [
        "ağ",
        "ır"
      ],
      [
        "yıldı",
        "z"
      ],
      [
        "in",
        "şa"
      ],
      [
        "an",
        "n"
      ],
      [
        "199",
        "7"
      ],
      [
        "g",
        "öl"
      ],
      [
        "k",
        "ın"
      ],
      [
        "3",
        "3"
      ],
      [
        "ar",
        "et"
      ],
      [
        "t",
        "esi"
      ],
      [
        "b",
        "ro"
      ],
      [
        "tek",
        "rar"
      ],
      [
        "or",
        "gan"
      ],
      [
        "kit",
        "ab"
      ],
      [
        "el",
        "de"
      ],
      [
        "ti",
        "v"
      ],
      [
        "f",
        "on"
      ],
      [
        "6",
        "6"
      ],
      [
        "bir",
        "kaç"
      ],
      [
        "u",
        "p"
      ],
      [
        "t",
        "im"
      ],
      [
        "ol",
        "ur"
      ],
      [
        "ele",
        "ştir"
      ],
      [
        "si",
        "dir"
      ],
      [
        "lan",
        "mıştır"
      ],
      [
        "e",
        "ce"
      ],
      [
        "kariy",
        "er"
      ],
      [
        "at",
        "ı"
      ],
      [
        "özel",
        "lik"
      ],
      [
        "el",
        "l"
      ],
      [
        "üç",
        "ün"
      ],
      [
        "rak",
        "i"
      ],
      [
        "bo",
        "z"
      ],
      [
        "dol",
        "ayı"
      ],
      [
        "ver",
        "di"
      ],
      [
        "18",
        "8"
      ],
      [
        "ülk",
        "eler"
      ],
      [
        "çi",
        "ft"
      ],
      [
        "te",
        "mi"
      ],
      [
        "b",
        "üt"
      ],
      [
        "ol",
        "ması"
      ],
      [
        "deği",
        "ştir"
      ],
      [
        "h",
        "iç"
      ],
      [
        "l",
        "ay"
      ],
      [
        "h",
        "ir"
      ],
      [
        "s",
        "y"
      ],
      [
        "n",
        "ot"
      ],
      [
        "ya",
        "hu"
      ],
      [
        "tür",
        "ü"
      ],
      [
        "bur",
        "ada"
      ],
      [
        "199",
        "5"
      ],
      [
        "tran",
        "s"
      ],
      [
        "ş",
        "ah"
      ],
      [
        "199",
        "4"
      ],
      [
        "199",
        "2"
      ],
      [
        "l",
        "ek"
      ],
      [
        "ilm",
        "esi"
      ],
      [
        "oy",
        "na"
      ],
      [
        "kariy",
        "eri"
      ],
      [
        "oyun",
        "c"
      ],
      [
        "oldu",
        "k"
      ],
      [
        "lam",
        "ıştır"
      ],
      [
        "kon",
        "trol"
      ],
      [
        "m",
        "el"
      ],
      [
        "ti",
        "car"
      ],
      [
        "kay",
        "ıt"
      ],
      [
        "v",
        "ur"
      ],
      [
        "lan",
        "da"
      ],
      [
        "ul",
        "a"
      ],
      [
        "film",
        "i"
      ],
      [
        "i",
        "fa"
      ],
      [
        "m",
        "ur"
      ],
      [
        "ya",
        "tı"
      ],
      [
        "n",
        "um"
      ],
      [
        "c",
        "as"
      ],
      [
        "f",
        "2"
      ],
      [
        "len",
        "di"
      ],
      [
        "ç",
        "iz"
      ],
      [
        "oyuncu",
        "ları"
      ],
      [
        "l",
        "it"
      ],
      [
        "m",
        "ay"
      ],
      [
        "w",
        "i"
      ],
      [
        "20",
        "22"
      ],
      [
        "3",
        "1"
      ],
      [
        "is",
        "inin"
      ],
      [
        "u",
        "ğ"
      ],
      [
        "s",
        "öyle"
      ],
      [
        "b",
        "on"
      ],
      [
        "di",
        "a"
      ],
      [
        "fak",
        "ül"
      ],
      [
        "199",
        "3"
      ],
      [
        "p",
        "al"
      ],
      [
        "da",
        "yan"
      ],
      [
        "son",
        "unda"
      ],
      [
        "ada",
        "m"
      ],
      [
        "olo",
        "g"
      ],
      [
        "f",
        "at"
      ],
      [
        "h",
        "it"
      ],
      [
        "familyas",
        "ına"
      ],
      [
        "ti",
        "p"
      ],
      [
        "es",
        "el"
      ],
      [
        "bo",
        "ş"
      ],
      [
        "18",
        "7"
      ],
      [
        "gurbet",
        "çi"
      ],
      [
        "beledi",
        "ye"
      ],
      [
        "198",
        "0"
      ],
      [
        "iz",
        "e"
      ],
      [
        "te",
        "p"
      ],
      [
        "ç",
        "ar"
      ],
      [
        "k",
        "ir"
      ],
      [
        "bilin",
        "en"
      ],
      [
        "s",
        "öy"
      ],
      [
        "aşa",
        "ğı"
      ],
      [
        "um",
        "u"
      ],
      [
        "b",
        "ra"
      ],
      [
        "st",
        "at"
      ],
      [
        "oloj",
        "ik"
      ],
      [
        "li",
        "am"
      ],
      [
        "arasında",
        "ki"
      ],
      [
        "sahip",
        "tir"
      ],
      [
        "un",
        "dan"
      ],
      [
        "al",
        "mıştır"
      ],
      [
        "kullan",
        "ılan"
      ],
      [
        "i",
        "di"
      ],
      [
        "kon",
        "uş"
      ],
      [
        "mo",
        "del"
      ],
      [
        "üy",
        "esi"
      ],
      [
        "sa",
        "h"
      ],
      [
        "gö",
        "k"
      ],
      [
        "sır",
        "ada"
      ],
      [
        "f",
        "eder"
      ],
      [
        "mü",
        "ca"
      ],
      [
        "aka",
        "dem"
      ],
      [
        "siya",
        "si"
      ],
      [
        "ü",
        "b"
      ],
      [
        "g",
        "c"
      ],
      [
        "em",
        "ek"
      ],
      [
        "ğ",
        "inde"
      ],
      [
        "geç",
        "en"
      ],
      [
        "be",
        "yaz"
      ],
      [
        "ro",
        "m"
      ],
      [
        "es",
        "t"
      ],
      [
        "hük",
        "üm"
      ],
      [
        "adı",
        "yla"
      ],
      [
        "b",
        "ri"
      ],
      [
        "tak",
        "i"
      ],
      [
        "w",
        "o"
      ],
      [
        "yap",
        "an"
      ],
      [
        "an",
        "lat"
      ],
      [
        "tek",
        "i"
      ],
      [
        "res",
        "im"
      ],
      [
        "m",
        "im"
      ],
      [
        "e",
        "cek"
      ],
      [
        "yaş",
        "ında"
      ],
      [
        "i̇mparator",
        "luğu"
      ],
      [
        "si",
        "te"
      ],
      [
        "tan",
        "rı"
      ],
      [
        "r",
        "on"
      ],
      [
        "p",
        "ara"
      ],
      [
        "as",
        "ya"
      ],
      [
        "d",
        "ük"
      ],
      [
        "gel",
        "ir"
      ],
      [
        "mad",
        "alya"
      ],
      [
        "ma",
        "ğ"
      ],
      [
        "w",
        "s"
      ],
      [
        "bel",
        "de"
      ],
      [
        "saldır",
        "ı"
      ],
      [
        "en",
        "i"
      ],
      [
        "f",
        "ar"
      ],
      [
        "ur",
        "t"
      ],
      [
        "bab",
        "ası"
      ],
      [
        "as",
        "k"
      ],
      [
        "an",
        "ın"
      ],
      [
        "bur",
        "g"
      ],
      [
        "b",
        "l"
      ],
      [
        "it",
        "y"
      ],
      [
        "bes",
        "t"
      ],
      [
        "c",
        "ılı"
      ],
      [
        "hu",
        "ku"
      ],
      [
        "ü",
        "ler"
      ],
      [
        "i̇tal",
        "yan"
      ],
      [
        "çık",
        "ış"
      ],
      [
        "h",
        "ik"
      ],
      [
        "ri",
        "ch"
      ],
      [
        "p",
        "as"
      ],
      [
        "az",
        "er"
      ],
      [
        "le",
        "a"
      ],
      [
        "al",
        "ır"
      ],
      [
        "öğren",
        "im"
      ],
      [
        "m",
        "eler"
      ],
      [
        "üçün",
        "cü"
      ],
      [
        "a",
        "ya"
      ],
      [
        "ad",
        "landır"
      ],
      [
        "yap",
        "ıl"
      ],
      [
        "g",
        "iy"
      ],
      [
        "an",
        "da"
      ],
      [
        "ç",
        "u"
      ],
      [
        "199",
        "1"
      ],
      [
        "f",
        "ır"
      ],
      [
        "er",
        "s"
      ],
      [
        "oluş",
        "an"
      ],
      [
        "d",
        "iler"
      ],
      [
        "de",
        "le"
      ],
      [
        "t",
        "s"
      ],
      [
        "n",
        "am"
      ],
      [
        "h",
        "in"
      ],
      [
        "sa",
        "at"
      ],
      [
        "a",
        "çı"
      ],
      [
        "kazan",
        "an"
      ],
      [
        "c",
        "il"
      ],
      [
        "arka",
        "daş"
      ],
      [
        "s",
        "ing"
      ],
      [
        "değiş",
        "ik"
      ],
      [
        "ör",
        "ne"
      ],
      [
        "ça",
        "p"
      ],
      [
        "ol",
        "mayan"
      ],
      [
        "er",
        "men"
      ],
      [
        "c",
        "y"
      ],
      [
        "v",
        "ir"
      ],
      [
        "b",
        "öyle"
      ],
      [
        "p",
        "it"
      ],
      [
        "yan",
        "ı"
      ],
      [
        "ch",
        "ar"
      ],
      [
        "araştır",
        "ma"
      ],
      [
        "kur",
        "t"
      ],
      [
        "çev",
        "r"
      ],
      [
        "w",
        "n"
      ],
      [
        "9",
        "0"
      ],
      [
        "po",
        "z"
      ],
      [
        "m",
        "os"
      ],
      [
        "yar",
        "at"
      ],
      [
        "dan",
        "a"
      ],
      [
        "geç",
        "er"
      ],
      [
        "bay",
        "can"
      ],
      [
        "yerleş",
        "im"
      ],
      [
        "kul",
        "üb"
      ],
      [
        "isi",
        "on"
      ],
      [
        "yaz",
        "ı"
      ],
      [
        "d",
        "or"
      ],
      [
        "i",
        "de"
      ],
      [
        "ede",
        "bi"
      ],
      [
        "çalış",
        "malar"
      ],
      [
        "or",
        "anı"
      ],
      [
        "197",
        "0"
      ],
      [
        "ifa",
        "de"
      ],
      [
        "or",
        "tak"
      ],
      [
        "oyuncu",
        "lar"
      ],
      [
        "an",
        "ad"
      ],
      [
        "de",
        "k"
      ],
      [
        "k",
        "üt"
      ],
      [
        "sul",
        "tan"
      ],
      [
        "c",
        "ut"
      ],
      [
        "8",
        "0"
      ],
      [
        "h",
        "im"
      ],
      [
        "ab",
        "er"
      ],
      [
        "3",
        "2"
      ],
      [
        "ün",
        "lü"
      ],
      [
        "h",
        "t"
      ],
      [
        "da",
        "m"
      ],
      [
        "azer",
        "baycan"
      ],
      [
        "as",
        "ını"
      ],
      [
        "mot",
        "or"
      ],
      [
        "ya",
        "ğ"
      ],
      [
        "i̇",
        "ran"
      ],
      [
        "w",
        "it"
      ],
      [
        "uzaklık",
        "tadır"
      ],
      [
        "öl",
        "dü"
      ],
      [
        "yon",
        "el"
      ],
      [
        "bir",
        "inci"
      ],
      [
        "c",
        "es"
      ],
      [
        "i̇s",
        "lam"
      ],
      [
        "ço",
        "ğu"
      ],
      [
        "t",
        "ok"
      ],
      [
        "h",
        "or"
      ],
      [
        "s",
        "uz"
      ],
      [
        "p",
        "az"
      ],
      [
        "profes",
        "yonel"
      ],
      [
        "w",
        "al"
      ],
      [
        "e",
        "bilir"
      ],
      [
        "su",
        "ç"
      ],
      [
        "se",
        "be"
      ],
      [
        "afr",
        "ika"
      ],
      [
        "er",
        "al"
      ],
      [
        "s",
        "ında"
      ],
      [
        "da",
        "ğı"
      ],
      [
        "un",
        "i"
      ],
      [
        "3",
        "5"
      ],
      [
        "mo",
        "der"
      ],
      [
        "ask",
        "eri"
      ],
      [
        "la",
        "v"
      ],
      [
        "p",
        "res"
      ],
      [
        "b",
        "iç"
      ],
      [
        "w",
        "ar"
      ],
      [
        "çık",
        "an"
      ],
      [
        "an",
        "g"
      ],
      [
        "te",
        "d"
      ],
      [
        "em",
        "i"
      ],
      [
        "ay",
        "et"
      ],
      [
        "sis",
        "temi"
      ],
      [
        "n",
        "it"
      ],
      [
        "benz",
        "er"
      ],
      [
        "ilm",
        "ektedir"
      ],
      [
        "198",
        "9"
      ],
      [
        "iyor",
        "du"
      ],
      [
        "jap",
        "on"
      ],
      [
        "t",
        "b"
      ],
      [
        "n",
        "az"
      ],
      [
        "türk",
        "çe"
      ],
      [
        "kal",
        "an"
      ],
      [
        "sü",
        "per"
      ],
      [
        "i",
        "f"
      ],
      [
        "sa",
        "hi"
      ],
      [
        "han",
        "gi"
      ],
      [
        "br",
        "it"
      ],
      [
        "gör",
        "üş"
      ],
      [
        "g",
        "ül"
      ],
      [
        "r",
        "ik"
      ],
      [
        "is",
        "ti"
      ],
      [
        "9",
        "7"
      ],
      [
        "ç",
        "at"
      ],
      [
        "al",
        "maktadır"
      ],
      [
        "tan",
        "ın"
      ],
      [
        "ed",
        "ilir"
      ],
      [
        "ad",
        "ını"
      ],
      [
        "itibar",
        "en"
      ],
      [
        "c",
        "ılık"
      ],
      [
        "o",
        "b"
      ],
      [
        "y",
        "ine"
      ],
      [
        "il",
        "a"
      ],
      [
        "ir",
        "i"
      ],
      [
        "anad",
        "olu"
      ],
      [
        "f",
        "et"
      ],
      [
        ")",
        ":"
      ],
      [
        "4",
        "5"
      ],
      [
        "s",
        "oy"
      ],
      [
        "son",
        "raki"
      ],
      [
        "lea",
        "gue"
      ],
      [
        "albüm",
        "ü"
      ],
      [
        "ş",
        "im"
      ],
      [
        "g",
        "on"
      ],
      [
        "böl",
        "geler"
      ],
      [
        "mı",
        "sır"
      ],
      [
        "moder",
        "n"
      ],
      [
        "ber",
        "aber"
      ],
      [
        "is",
        "ini"
      ],
      [
        "ıl",
        "ım"
      ],
      [
        "c",
        "isi"
      ],
      [
        "lan",
        "mış"
      ],
      [
        "198",
        "8"
      ],
      [
        "f",
        "ot"
      ],
      [
        "topl",
        "um"
      ],
      [
        "w",
        "w"
      ],
      [
        "üy",
        "eleri"
      ],
      [
        "g",
        "iz"
      ],
      [
        "t",
        "ro"
      ],
      [
        "lam",
        "ak"
      ],
      [
        "cu",
        "lar"
      ],
      [
        "sahip",
        "leri"
      ],
      [
        "kral",
        "lık"
      ],
      [
        "ver",
        "ilen"
      ],
      [
        "k",
        "â"
      ],
      [
        "ka",
        "ya"
      ],
      [
        "'",
        "'"
      ],
      [
        "g",
        "ez"
      ],
      [
        "te",
        "or"
      ],
      [
        "fiz",
        "ik"
      ],
      [
        "t",
        "om"
      ],
      [
        "pro",
        "j"
      ],
      [
        "ama",
        "cı"
      ],
      [
        "i",
        "o"
      ],
      [
        "kal",
        "dı"
      ],
      [
        "dönem",
        "inde"
      ],
      [
        "198",
        "6"
      ],
      [
        ".",
        "\""
      ],
      [
        "m",
        "is"
      ],
      [
        "ara",
        "ç"
      ],
      [
        "ör",
        "nek"
      ],
      [
        "yap",
        "ımı"
      ],
      [
        "198",
        "7"
      ],
      [
        "ay",
        "ar"
      ],
      [
        "der",
        "g"
      ],
      [
        "i",
        "e"
      ],
      [
        "ış",
        "ı"
      ],
      [
        "l",
        "os"
      ],
      [
        "büt",
        "ün"
      ],
      [
        "ha",
        "v"
      ],
      [
        "r",
        "as"
      ],
      [
        "h",
        "ey"
      ],
      [
        "son",
        "ucu"
      ],
      [
        "alan",
        "ı"
      ],
      [
        "v",
        "ak"
      ],
      [
        "gür",
        "eş"
      ],
      [
        "g",
        "ran"
      ],
      [
        "bil",
        "gi"
      ],
      [
        "ord",
        "usu"
      ],
      [
        "ber",
        "g"
      ],
      [
        "doğ",
        "an"
      ],
      [
        "m",
        "ö"
      ],
      [
        "uygul",
        "am"
      ],
      [
        "ay",
        "ak"
      ],
      [
        "bak",
        "anı"
      ],
      [
        "j",
        "am"
      ],
      [
        "et",
        "miştir"
      ],
      [
        "j",
        "in"
      ],
      [
        "at",
        "a"
      ],
      [
        "es",
        "inden"
      ],
      [
        "nı",
        "z"
      ],
      [
        "bir",
        "im"
      ],
      [
        "ren",
        "k"
      ],
      [
        "man",
        "ın"
      ],
      [
        "is",
        "yen"
      ],
      [
        "t",
        "ri"
      ],
      [
        "i̇span",
        "ya"
      ],
      [
        "kom",
        "ün"
      ],
      [
        "in",
        "an"
      ],
      [
        "yal",
        "nız"
      ],
      [
        "st",
        "it"
      ],
      [
        "ç",
        "öz"
      ],
      [
        "ra",
        "il"
      ],
      [
        "bun",
        "a"
      ],
      [
        "u",
        "yar"
      ],
      [
        "çalı",
        "ştı"
      ],
      [
        "şehr",
        "in"
      ],
      [
        "kal",
        "e"
      ],
      [
        "tek",
        "n"
      ],
      [
        "ödül",
        "leri"
      ],
      [
        "h",
        "y"
      ],
      [
        "yay",
        "gın"
      ],
      [
        "ro",
        "ck"
      ],
      [
        "mu",
        "har"
      ],
      [
        "jap",
        "onya"
      ],
      [
        "ge",
        "or"
      ],
      [
        "sezon",
        "unda"
      ],
      [
        "6",
        "5"
      ],
      [
        "at",
        "ör"
      ],
      [
        "li",
        "der"
      ],
      [
        "al",
        "dığı"
      ],
      [
        "et",
        "ik"
      ],
      [
        "ülk",
        "e"
      ],
      [
        "sür",
        "dür"
      ],
      [
        "fa",
        "al"
      ],
      [
        "h",
        "â"
      ],
      [
        "ma",
        "da"
      ],
      [
        "j",
        "u"
      ],
      [
        "b",
        "b"
      ],
      [
        "mev",
        "cut"
      ],
      [
        "h",
        "es"
      ],
      [
        "wil",
        "liam"
      ],
      [
        "per",
        "for"
      ],
      [
        "g",
        "am"
      ],
      [
        "ot",
        "om"
      ],
      [
        "ili",
        "ği"
      ],
      [
        "li",
        "ğini"
      ],
      [
        "un",
        "g"
      ],
      [
        "g",
        "üz"
      ],
      [
        "etk",
        "in"
      ],
      [
        "7",
        "0"
      ],
      [
        "bölg",
        "esi"
      ],
      [
        "dış",
        "ında"
      ],
      [
        "kat",
        "ıldı"
      ],
      [
        "b",
        "is"
      ],
      [
        "p",
        "ap"
      ],
      [
        "n",
        "gc"
      ],
      [
        "res",
        "m"
      ],
      [
        "kil",
        "is"
      ],
      [
        "196",
        "0"
      ],
      [
        "v",
        "as"
      ],
      [
        "şek",
        "l"
      ],
      [
        "ya",
        "ban"
      ],
      [
        "il",
        "çe"
      ],
      [
        "mü",
        "hen"
      ],
      [
        "sen",
        "ar"
      ],
      [
        "kız",
        "ıl"
      ],
      [
        "u",
        "ma"
      ],
      [
        "başkan",
        "lığı"
      ],
      [
        "or",
        "t"
      ],
      [
        "ok",
        "ulu"
      ],
      [
        "v",
        "at"
      ],
      [
        "im",
        "z"
      ],
      [
        "yarış",
        "ması"
      ],
      [
        "perfor",
        "man"
      ],
      [
        "mahall",
        "eleri"
      ],
      [
        "bölüm",
        "ü"
      ],
      [
        "üm",
        "ü"
      ],
      [
        "te",
        "ş"
      ],
      [
        "yap",
        "mıştır"
      ],
      [
        "f",
        "ir"
      ],
      [
        "h",
        "ri"
      ],
      [
        "j",
        "en"
      ],
      [
        "faal",
        "iyet"
      ],
      [
        "doğ",
        "du"
      ],
      [
        "k",
        "oy"
      ],
      [
        "g",
        "üt"
      ],
      [
        "kon",
        "usu"
      ],
      [
        "198",
        "4"
      ],
      [
        "i",
        "an"
      ],
      [
        "ay",
        "d"
      ],
      [
        "ha",
        "ber"
      ],
      [
        "for",
        "d"
      ],
      [
        "lo",
        "w"
      ],
      [
        "tb",
        "mm"
      ],
      [
        "y",
        "oğun"
      ],
      [
        "müz",
        "i"
      ],
      [
        "avust",
        "ur"
      ],
      [
        "ül",
        "dü"
      ],
      [
        "huku",
        "k"
      ],
      [
        "ler",
        "dir"
      ],
      [
        "sonuç",
        "lar"
      ],
      [
        "dok",
        "tor"
      ],
      [
        "meh",
        "met"
      ],
      [
        "z",
        "ar"
      ],
      [
        "l",
        "isi"
      ],
      [
        "sahi",
        "bi"
      ],
      [
        "ma",
        "car"
      ],
      [
        "i̇",
        "ç"
      ],
      [
        "p",
        "lat"
      ],
      [
        "n",
        "den"
      ],
      [
        "ış",
        "ık"
      ],
      [
        "da",
        "ir"
      ],
      [
        "kal",
        "dır"
      ],
      [
        "ür",
        "ün"
      ],
      [
        "lan",
        "ır"
      ],
      [
        "gö",
        "ç"
      ],
      [
        "örne",
        "ğin"
      ],
      [
        "m",
        "esine"
      ],
      [
        "i̇s",
        "rail"
      ],
      [
        "me",
        "di"
      ],
      [
        "4",
        "7"
      ],
      [
        "kullan",
        "ılır"
      ],
      [
        "p",
        "ren"
      ],
      [
        "pu",
        "an"
      ],
      [
        "t",
        "ık"
      ],
      [
        "i",
        "ci"
      ],
      [
        "s",
        "as"
      ],
      [
        "ha",
        "yatı"
      ],
      [
        "pl",
        "ay"
      ],
      [
        "parç",
        "ası"
      ],
      [
        "ler",
        "iyle"
      ],
      [
        "b",
        "lo"
      ],
      [
        "avust",
        "r"
      ],
      [
        "mek",
        "te"
      ],
      [
        "gelen",
        "ek"
      ],
      [
        "geç",
        "ti"
      ],
      [
        "al",
        "e"
      ],
      [
        "mar",
        "k"
      ],
      [
        "em",
        "in"
      ],
      [
        "198",
        "5"
      ],
      [
        "ce",
        "ae"
      ],
      [
        "müca",
        "dele"
      ],
      [
        "bir",
        "bir"
      ],
      [
        "mu",
        "h"
      ],
      [
        "m",
        "eyi"
      ],
      [
        "mü",
        "ş"
      ],
      [
        "ez",
        "il"
      ],
      [
        "ser",
        "best"
      ],
      [
        "alar",
        "ında"
      ],
      [
        "d",
        "ro"
      ],
      [
        "bu",
        "gün"
      ],
      [
        "üniver",
        "sit"
      ],
      [
        "ası",
        "yla"
      ],
      [
        "ch",
        "e"
      ],
      [
        "j",
        "os"
      ],
      [
        "p",
        "ay"
      ],
      [
        "k",
        "ili"
      ],
      [
        "albüm",
        "leri"
      ],
      [
        "ver",
        "en"
      ],
      [
        "d",
        "s"
      ],
      [
        "mas",
        "ının"
      ],
      [
        "ğ",
        "ine"
      ],
      [
        "cin",
        "sidir"
      ],
      [
        "yan",
        "ın"
      ],
      [
        "dön",
        "üş"
      ],
      [
        "biç",
        "im"
      ],
      [
        "kurulu",
        "ş"
      ],
      [
        "a",
        "det"
      ],
      [
        "u",
        "e"
      ],
      [
        "yıl",
        "ından"
      ],
      [
        "kadın",
        "lar"
      ],
      [
        "ı",
        "p"
      ],
      [
        "b",
        "alık"
      ],
      [
        "ab",
        "ile"
      ],
      [
        "br",
        "ezil"
      ],
      [
        "ı",
        "sı"
      ],
      [
        "la",
        "h"
      ],
      [
        "yapım",
        "cı"
      ],
      [
        "at",
        "eş"
      ],
      [
        "mı",
        "ştı"
      ],
      [
        "gör",
        "enler"
      ],
      [
        "ıs",
        "ında"
      ],
      [
        "p",
        "is"
      ],
      [
        "le",
        "yen"
      ],
      [
        "en",
        "di"
      ],
      [
        "ları",
        "yla"
      ],
      [
        "tur",
        "nu"
      ],
      [
        "st",
        "r"
      ],
      [
        "eler",
        "in"
      ],
      [
        "er",
        "ken"
      ],
      [
        "dönem",
        "de"
      ],
      [
        "gir",
        "iş"
      ],
      [
        "m",
        "ol"
      ],
      [
        "mü",
        "s"
      ],
      [
        "3",
        "7"
      ],
      [
        "n",
        "av"
      ],
      [
        "i̇s",
        "veç"
      ],
      [
        "ör",
        "güt"
      ],
      [
        "en",
        "gel"
      ],
      [
        "an",
        "gel"
      ],
      [
        "bulun",
        "du"
      ],
      [
        "i",
        "v"
      ],
      [
        "alar",
        "ın"
      ],
      [
        "ist",
        "iyan"
      ],
      [
        "ad",
        "alet"
      ],
      [
        "ek",
        "i"
      ],
      [
        "om",
        "et"
      ],
      [
        "olimpiyat",
        "ları"
      ],
      [
        "lü",
        "ğü"
      ],
      [
        "kan",
        "al"
      ],
      [
        "mü",
        "dür"
      ],
      [
        "baş",
        "lan"
      ],
      [
        "m",
        "alı"
      ],
      [
        "lü",
        "ğ"
      ],
      [
        "gün",
        "ü"
      ],
      [
        "iz",
        "in"
      ],
      [
        "a",
        "g"
      ],
      [
        "el",
        "em"
      ],
      [
        "güz",
        "el"
      ],
      [
        "i̇k",
        "inci"
      ],
      [
        "kr",
        "ay"
      ],
      [
        "kı",
        "yı"
      ],
      [
        "198",
        "3"
      ],
      [
        "düzen",
        "lenen"
      ],
      [
        "la",
        "dığı"
      ],
      [
        "198",
        "2"
      ],
      [
        "da",
        "y"
      ],
      [
        "dı",
        "ğını"
      ],
      [
        "ama",
        "ç"
      ],
      [
        "n",
        "at"
      ],
      [
        "asıl",
        "lı"
      ],
      [
        "le",
        "di"
      ],
      [
        "der",
        "s"
      ],
      [
        "bil",
        "dir"
      ],
      [
        "le",
        "v"
      ],
      [
        "hal",
        "e"
      ],
      [
        "resm",
        "î"
      ],
      [
        "ç",
        "oğun"
      ],
      [
        "lı",
        "ğını"
      ],
      [
        "f",
        "r"
      ],
      [
        "4",
        "8"
      ],
      [
        "g",
        "ali"
      ],
      [
        "te",
        "h"
      ],
      [
        "gen",
        "eral"
      ],
      [
        "her",
        "hangi"
      ],
      [
        "k",
        "las"
      ],
      [
        "an",
        "i"
      ],
      [
        "ol",
        "abilir"
      ],
      [
        "ce",
        "z"
      ],
      [
        "qu",
        "e"
      ],
      [
        "u",
        "kray"
      ],
      [
        "b",
        "la"
      ],
      [
        "k",
        "amp"
      ],
      [
        "mim",
        "ar"
      ],
      [
        "s",
        "ik"
      ],
      [
        "y",
        "el"
      ],
      [
        "te",
        "pe"
      ],
      [
        "günümüz",
        "de"
      ],
      [
        "bilg",
        "is"
      ],
      [
        "g",
        "üm"
      ],
      [
        "f2",
        "f2"
      ],
      [
        "itibar",
        "ıyla"
      ],
      [
        "hem",
        "en"
      ],
      [
        "m",
        "c"
      ],
      [
        "şt",
        "a"
      ],
      [
        "karde",
        "ş"
      ],
      [
        "c",
        "em"
      ],
      [
        "baş",
        "ı"
      ],
      [
        "ile",
        "bilir"
      ],
      [
        "o",
        "da"
      ],
      [
        "ar",
        "ay"
      ],
      [
        "eur",
        "ov"
      ],
      [
        "iş",
        "lem"
      ],
      [
        "al",
        "l"
      ],
      [
        "197",
        "9"
      ],
      [
        "gün",
        "eş"
      ],
      [
        "şi",
        "ir"
      ],
      [
        ".",
        ")"
      ],
      [
        "milletve",
        "kil"
      ],
      [
        "on",
        "g"
      ],
      [
        "m",
        "s"
      ],
      [
        "3",
        "8"
      ],
      [
        "i̇z",
        "mir"
      ],
      [
        "kon",
        "usunda"
      ],
      [
        "n",
        "ation"
      ],
      [
        "met",
        "re"
      ],
      [
        "eurov",
        "ision"
      ],
      [
        "sa",
        "ha"
      ],
      [
        "un",
        "iver"
      ],
      [
        "yor",
        "um"
      ],
      [
        "mahalle",
        "dir"
      ],
      [
        "kim",
        "ya"
      ],
      [
        "mühen",
        "dis"
      ],
      [
        "fi",
        "fa"
      ],
      [
        "polit",
        "ik"
      ],
      [
        "|",
        "}"
      ],
      [
        "as",
        "ının"
      ],
      [
        "yıl",
        "larında"
      ],
      [
        "st",
        "and"
      ],
      [
        "i",
        "dae"
      ],
      [
        "mu",
        "sta"
      ],
      [
        "ma",
        "dan"
      ],
      [
        "t",
        "un"
      ],
      [
        "h",
        "el"
      ],
      [
        "ir",
        "a"
      ],
      [
        "b",
        "ot"
      ],
      [
        "3",
        "6"
      ],
      [
        "c",
        "at"
      ],
      [
        "ul",
        "du"
      ],
      [
        "şeh",
        "ri"
      ],
      [
        "y",
        "eş"
      ],
      [
        "içer",
        "en"
      ],
      [
        "k",
        "ali"
      ],
      [
        "yıl",
        "lık"
      ],
      [
        "p",
        "il"
      ],
      [
        "mes",
        "ini"
      ],
      [
        "var",
        "dı"
      ],
      [
        "l",
        "ov"
      ],
      [
        "l",
        "d"
      ],
      [
        "il",
        "et"
      ],
      [
        "c",
        "r"
      ],
      [
        "hr",
        "istiyan"
      ],
      [
        "kö",
        "ken"
      ],
      [
        "%",
        "|"
      ],
      [
        "20",
        "23"
      ],
      [
        "kay",
        "b"
      ],
      [
        "sezon",
        "u"
      ],
      [
        "trans",
        "fer"
      ],
      [
        "fakül",
        "tesi"
      ],
      [
        "bul",
        "gar"
      ],
      [
        "an",
        "o"
      ],
      [
        "le",
        "mek"
      ],
      [
        "d",
        "ö"
      ],
      [
        "197",
        "4"
      ],
      [
        "n",
        "as"
      ],
      [
        "dik",
        "kat"
      ],
      [
        "ön",
        "cek"
      ],
      [
        "ce",
        "p"
      ],
      [
        "ro",
        "w"
      ],
      [
        "kuvvet",
        "leri"
      ],
      [
        "iş",
        "leri"
      ],
      [
        "h",
        "üc"
      ],
      [
        "ah",
        "met"
      ],
      [
        "197",
        "3"
      ],
      [
        "st",
        "ar"
      ],
      [
        "biz",
        "ans"
      ],
      [
        "f",
        "ab"
      ],
      [
        "in",
        "o"
      ],
      [
        "as",
        "tr"
      ],
      [
        "ant",
        "ik"
      ],
      [
        "musta",
        "fa"
      ],
      [
        "3",
        "4"
      ],
      [
        "li",
        "ga"
      ],
      [
        "198",
        "1"
      ],
      [
        "a",
        "ile"
      ],
      [
        "öz",
        "gür"
      ],
      [
        "böyle",
        "ce"
      ],
      [
        "bakan",
        "lığı"
      ],
      [
        "197",
        "5"
      ],
      [
        "por",
        "tek"
      ],
      [
        "portek",
        "iz"
      ],
      [
        "uz",
        "ay"
      ],
      [
        "hik",
        "â"
      ],
      [
        "şehir",
        "ler"
      ],
      [
        "la",
        "ştır"
      ],
      [
        "197",
        "2"
      ],
      [
        "co",
        "un"
      ],
      [
        "ç",
        "ak"
      ],
      [
        "uyg",
        "un"
      ],
      [
        "is",
        "bn"
      ],
      [
        "p",
        "le"
      ],
      [
        "yan",
        "i"
      ],
      [
        "k",
        "ış"
      ],
      [
        "ya",
        "v"
      ],
      [
        "edilm",
        "iş"
      ],
      [
        "siyaset",
        "çi"
      ],
      [
        "son",
        "a"
      ],
      [
        "sı",
        "cak"
      ],
      [
        "bulun",
        "duğu"
      ],
      [
        "b",
        "unu"
      ],
      [
        "197",
        "8"
      ],
      [
        "i̇",
        "r"
      ],
      [
        "sayı",
        "da"
      ],
      [
        "in",
        "cel"
      ],
      [
        "öğret",
        "im"
      ],
      [
        "n",
        "y"
      ],
      [
        "keş",
        "f"
      ],
      [
        "ses",
        "lendir"
      ],
      [
        "an",
        "al"
      ],
      [
        "il",
        "an"
      ],
      [
        "tar",
        "t"
      ],
      [
        "öncek",
        "i"
      ],
      [
        "w",
        "ard"
      ],
      [
        "197",
        "6"
      ],
      [
        "son",
        "uc"
      ],
      [
        "i̇",
        "ki"
      ],
      [
        "katıl",
        "ım"
      ],
      [
        "müs",
        "lü"
      ],
      [
        "197",
        "7"
      ],
      [
        "cı",
        "lar"
      ],
      [
        "şt",
        "u"
      ],
      [
        "başlan",
        "gı"
      ],
      [
        "başar",
        "ılı"
      ],
      [
        "ekonom",
        "ik"
      ],
      [
        "te",
        "x"
      ],
      [
        "ay",
        "ında"
      ],
      [
        "pa",
        "ul"
      ],
      [
        "müslü",
        "man"
      ],
      [
        "st",
        "ad"
      ],
      [
        "gir",
        "di"
      ],
      [
        "f",
        "u"
      ],
      [
        "6",
        "4"
      ],
      [
        "len",
        "miştir"
      ],
      [
        "p",
        "ak"
      ],
      [
        "kor",
        "e"
      ],
      [
        ".",
        ","
      ],
      [
        "ek",
        "li"
      ],
      [
        "güç",
        "lü"
      ],
      [
        "i̇span",
        "yol"
      ],
      [
        "mez",
        "ar"
      ],
      [
        "3",
        "9"
      ],
      [
        "j",
        "an"
      ],
      [
        "se",
        "fer"
      ],
      [
        "pol",
        "onya"
      ],
      [
        "en",
        "stit"
      ],
      [
        "baş",
        "layan"
      ],
      [
        "den",
        "ey"
      ],
      [
        "isim",
        "li"
      ],
      [
        "git",
        "ar"
      ],
      [
        "cılı",
        "ğı"
      ],
      [
        "sağ",
        "lık"
      ],
      [
        "lon",
        "dra"
      ],
      [
        "v",
        "in"
      ],
      [
        "tan",
        "ıt"
      ],
      [
        "196",
        "8"
      ],
      [
        "elektr",
        "ik"
      ],
      [
        "p",
        "t"
      ],
      [
        "par",
        "ça"
      ],
      [
        "pol",
        "is"
      ],
      [
        "say",
        "ım"
      ],
      [
        "ey",
        "en"
      ],
      [
        "v",
        "atan"
      ],
      [
        "ken",
        "in"
      ],
      [
        "yıl",
        "ın"
      ],
      [
        "hiç",
        "bir"
      ],
      [
        "uç",
        "ak"
      ],
      [
        "an",
        "ya"
      ],
      [
        "me",
        "den"
      ],
      [
        "is",
        "m"
      ],
      [
        "yaz",
        "arı"
      ],
      [
        "5",
        "5"
      ],
      [
        "edebi",
        "yat"
      ],
      [
        "sor",
        "un"
      ],
      [
        "sing",
        "le"
      ],
      [
        "ar",
        "e"
      ],
      [
        "tı",
        "ğı"
      ],
      [
        "k",
        "tan"
      ],
      [
        "futbolcu",
        "dur"
      ],
      [
        "197",
        "1"
      ],
      [
        "sur",
        "iye"
      ],
      [
        "bah",
        "çe"
      ],
      [
        "met",
        "al"
      ],
      [
        "g",
        "raf"
      ],
      [
        "d",
        "istan"
      ],
      [
        "kiş",
        "iler"
      ],
      [
        "y",
        "ık"
      ],
      [
        "s",
        "et"
      ],
      [
        "doğ",
        "al"
      ],
      [
        "g",
        "us"
      ],
      [
        "ko",
        "ç"
      ],
      [
        "mat",
        "em"
      ],
      [
        "tart",
        "ış"
      ],
      [
        "b",
        "le"
      ],
      [
        "p",
        "ın"
      ],
      [
        "v",
        "o"
      ],
      [
        "lo",
        "u"
      ],
      [
        "ce",
        "ği"
      ],
      [
        "ğ",
        "ın"
      ],
      [
        "bilgis",
        "ayar"
      ],
      [
        "ticar",
        "et"
      ],
      [
        "ması",
        "yla"
      ],
      [
        "es",
        "iyle"
      ],
      [
        "g",
        "ra"
      ],
      [
        "kur",
        "um"
      ],
      [
        "or",
        "e"
      ],
      [
        "üret",
        "im"
      ],
      [
        "ayd",
        "ın"
      ],
      [
        "k",
        "um"
      ],
      [
        "siyaset",
        "çiler"
      ],
      [
        "es",
        "ter"
      ],
      [
        "has",
        "t"
      ],
      [
        "dav",
        "id"
      ],
      [
        "mez",
        "un"
      ],
      [
        "içer",
        "isinde"
      ],
      [
        "f",
        "re"
      ],
      [
        "yalnız",
        "ca"
      ],
      [
        "fot",
        "oğraf"
      ],
      [
        "s",
        "ına"
      ],
      [
        "mas",
        "ından"
      ],
      [
        "1",
        "c"
      ],
      [
        "al",
        "am"
      ],
      [
        "çalış",
        "maları"
      ],
      [
        "len",
        "ir"
      ],
      [
        "mill",
        "iyet"
      ],
      [
        "sı",
        "yla"
      ],
      [
        "yunan",
        "istan"
      ],
      [
        "kon",
        "ser"
      ],
      [
        "ken",
        "ti"
      ],
      [
        "anlam",
        "ına"
      ],
      [
        "ç",
        "an"
      ],
      [
        "yaban",
        "cı"
      ],
      [
        "196",
        "9"
      ],
      [
        "ro",
        "bert"
      ],
      [
        "poz",
        "isyon"
      ],
      [
        "kö",
        "pr"
      ],
      [
        "c",
        "m"
      ],
      [
        "n",
        "ey"
      ],
      [
        "man",
        "ı"
      ],
      [
        "tasar",
        "ım"
      ],
      [
        "hal",
        "ine"
      ],
      [
        "oyun",
        "u"
      ],
      [
        "l",
        "ine"
      ],
      [
        "biri",
        "dir"
      ],
      [
        "ma",
        "c"
      ],
      [
        "yan",
        "a"
      ],
      [
        "fel",
        "se"
      ],
      [
        "çat",
        "ış"
      ],
      [
        "men",
        "t"
      ],
      [
        "of",
        "f"
      ],
      [
        "g",
        "un"
      ],
      [
        "baş",
        "ına"
      ],
      [
        "düş",
        "ük"
      ],
      [
        "eder",
        "ek"
      ],
      [
        "u",
        "di"
      ],
      [
        "wor",
        "ld"
      ],
      [
        "r",
        "ay"
      ],
      [
        "aş",
        "ır"
      ],
      [
        "doğ",
        "um"
      ],
      [
        "oyna",
        "dı"
      ],
      [
        "le",
        "yi"
      ],
      [
        "n",
        "deki"
      ],
      [
        "par",
        "k"
      ],
      [
        "z",
        "er"
      ],
      [
        "y",
        "ör"
      ],
      [
        "ş",
        "en"
      ],
      [
        "ili",
        "p"
      ],
      [
        "pro",
        "f"
      ],
      [
        "kr",
        "alı"
      ],
      [
        "ii",
        "i"
      ],
      [
        "tan",
        "ı"
      ],
      [
        "ö",
        "m"
      ],
      [
        "çalış",
        "an"
      ],
      [
        "de",
        "li"
      ],
      [
        "cin",
        "s"
      ],
      [
        "is",
        "ine"
      ],
      [
        "di",
        "e"
      ],
      [
        "gi",
        "der"
      ],
      [
        "bit",
        "ir"
      ],
      [
        "ül",
        "kenin"
      ],
      [
        "şarkı",
        "ları"
      ],
      [
        "195",
        "0"
      ],
      [
        "köy",
        "leri"
      ],
      [
        "baş",
        "lat"
      ],
      [
        "mi",
        "cha"
      ],
      [
        "h",
        "ır"
      ],
      [
        "şekl",
        "inde"
      ],
      [
        "diz",
        "ileri"
      ],
      [
        "paz",
        "ar"
      ],
      [
        "pi",
        "yasa"
      ],
      [
        "kı",
        "zı"
      ],
      [
        "avustur",
        "ya"
      ],
      [
        "j",
        "er"
      ],
      [
        "ok",
        "al"
      ],
      [
        "oyunc",
        "usu"
      ],
      [
        "m",
        "asında"
      ],
      [
        "s",
        "arı"
      ],
      [
        "c",
        "us"
      ],
      [
        "say",
        "f"
      ],
      [
        "c",
        "ileri"
      ],
      [
        "siyon",
        "u"
      ],
      [
        "bil",
        "en"
      ],
      [
        "..",
        "."
      ],
      [
        "r",
        "um"
      ],
      [
        "ur",
        "i"
      ],
      [
        "ç",
        "ün"
      ],
      [
        "z",
        "iy"
      ],
      [
        "don",
        "an"
      ],
      [
        "haf",
        "ta"
      ],
      [
        "w",
        "ay"
      ],
      [
        "geç",
        "miş"
      ],
      [
        "196",
        "7"
      ],
      [
        "ama",
        "ya"
      ],
      [
        "göz",
        "lem"
      ],
      [
        "ğ",
        "ına"
      ],
      [
        "at",
        "ür"
      ],
      [
        "yön",
        "tem"
      ],
      [
        "bölg",
        "esinde"
      ],
      [
        "sar",
        "ay"
      ],
      [
        "yan",
        "ında"
      ],
      [
        "dü",
        "ğ"
      ],
      [
        "ş",
        "an"
      ],
      [
        "matem",
        "atik"
      ],
      [
        "d",
        "eri"
      ],
      [
        "yıl",
        "larda"
      ],
      [
        "tr",
        "en"
      ],
      [
        "rad",
        "yo"
      ],
      [
        "maç",
        "ta"
      ],
      [
        "iler",
        "ini"
      ],
      [
        "kap",
        "sam"
      ],
      [
        "ati",
        "f"
      ],
      [
        "köy",
        "dür"
      ],
      [
        "çün",
        "kü"
      ],
      [
        "id",
        "dia"
      ],
      [
        "yür",
        "üt"
      ],
      [
        "ver",
        "ildi"
      ],
      [
        "di",
        "ye"
      ],
      [
        "micha",
        "el"
      ],
      [
        "mah",
        "kem"
      ],
      [
        "tes",
        "pit"
      ],
      [
        "karde",
        "şi"
      ],
      [
        "bu",
        "z"
      ],
      [
        "for",
        "ni"
      ],
      [
        "seç",
        "ildi"
      ],
      [
        "z",
        "on"
      ],
      [
        "l",
        "ing"
      ],
      [
        "sonr",
        "asında"
      ],
      [
        "tal",
        "ık"
      ],
      [
        "jam",
        "es"
      ],
      [
        "ilm",
        "ek"
      ],
      [
        "seçim",
        "leri"
      ],
      [
        "is",
        "el"
      ],
      [
        "erkek",
        "ler"
      ],
      [
        "iş",
        "let"
      ],
      [
        "i̇n",
        "san"
      ],
      [
        "st",
        "ü"
      ],
      [
        "ukray",
        "na"
      ],
      [
        "c",
        "ık"
      ],
      [
        "t",
        "p"
      ],
      [
        "k",
        "li"
      ],
      [
        "yıl",
        "ına"
      ],
      [
        "ps",
        "ik"
      ],
      [
        "cu",
        "ları"
      ],
      [
        "in",
        "dir"
      ],
      [
        "kı",
        "br"
      ],
      [
        "diz",
        "isi"
      ],
      [
        "f",
        "ri"
      ],
      [
        "dün",
        "yanın"
      ],
      [
        "tı",
        "p"
      ],
      [
        "şa",
        "ir"
      ],
      [
        "do",
        "ws"
      ],
      [
        "l",
        "ilik"
      ],
      [
        "ne",
        "hri"
      ],
      [
        "olduk",
        "ça"
      ],
      [
        "im",
        "parator"
      ],
      [
        "sh",
        "ire"
      ],
      [
        "f",
        "en"
      ],
      [
        "eler",
        "inin"
      ],
      [
        "kıbr",
        "ıs"
      ],
      [
        "pop",
        "üler"
      ],
      [
        "it",
        "a"
      ],
      [
        "merkez",
        "li"
      ],
      [
        "v",
        "is"
      ],
      [
        "or",
        "an"
      ],
      [
        "hr",
        "aman"
      ],
      [
        "ve",
        "s"
      ],
      [
        "nation",
        "al"
      ],
      [
        "b",
        "ran"
      ],
      [
        "kon",
        "um"
      ],
      [
        "er",
        "z"
      ],
      [
        "sa",
        "hn"
      ],
      [
        "196",
        "5"
      ],
      [
        "b",
        "oğ"
      ],
      [
        "n",
        "an"
      ],
      [
        "ş",
        "id"
      ],
      [
        "f",
        "ener"
      ],
      [
        "for",
        "ma"
      ],
      [
        "değil",
        "dir"
      ],
      [
        "19",
        "28"
      ],
      [
        "ce",
        "ğini"
      ],
      [
        "/",
        "/"
      ],
      [
        "ka",
        "f"
      ],
      [
        "söz",
        "leş"
      ],
      [
        "ğ",
        "a"
      ],
      [
        "can",
        "landır"
      ],
      [
        "196",
        "6"
      ],
      [
        "ka",
        "hraman"
      ],
      [
        "5",
        "7"
      ],
      [
        "hane",
        "dan"
      ],
      [
        "çalış",
        "ma"
      ],
      [
        "mi",
        "c"
      ],
      [
        "kan",
        "ada"
      ],
      [
        "mi",
        "şti"
      ],
      [
        "4",
        "4"
      ],
      [
        "boy",
        "ut"
      ],
      [
        "kat",
        "kı"
      ],
      [
        "6",
        "8"
      ],
      [
        "yeş",
        "il"
      ],
      [
        "yahu",
        "di"
      ],
      [
        "t",
        "is"
      ],
      [
        "avustr",
        "alya"
      ],
      [
        "b",
        "om"
      ],
      [
        "nok",
        "t"
      ],
      [
        "r",
        "ul"
      ],
      [
        "og",
        "rafi"
      ],
      [
        "kurul",
        "du"
      ],
      [
        "n",
        "dan"
      ],
      [
        "amacı",
        "yla"
      ],
      [
        "hol",
        "landa"
      ],
      [
        "ay",
        "ır"
      ],
      [
        "ser",
        "g"
      ],
      [
        "bar",
        "ış"
      ],
      [
        "hız",
        "lı"
      ],
      [
        "te",
        "z"
      ],
      [
        "ue",
        "fa"
      ],
      [
        "tamam",
        "en"
      ],
      [
        "bir",
        "ey"
      ],
      [
        "as",
        "it"
      ],
      [
        "t",
        "ük"
      ],
      [
        "re",
        "c"
      ],
      [
        "v",
        "eri"
      ],
      [
        "h",
        "üs"
      ],
      [
        "gelenek",
        "sel"
      ],
      [
        "at",
        "e"
      ],
      [
        "iç",
        "i"
      ],
      [
        "görün",
        "tü"
      ],
      [
        "taş",
        "ın"
      ],
      [
        "d",
        "ram"
      ],
      [
        "la",
        "ya"
      ],
      [
        "n",
        "iş"
      ],
      [
        "iler",
        "ek"
      ],
      [
        "b",
        "ayr"
      ],
      [
        "y",
        "di"
      ],
      [
        "k",
        "ov"
      ],
      [
        "25",
        "1c"
      ],
      [
        "da",
        "251c"
      ],
      [
        "a",
        "dan"
      ],
      [
        "196",
        "4"
      ],
      [
        "ulu",
        "ğu"
      ],
      [
        "r",
        "atik"
      ],
      [
        "sovyet",
        "ler"
      ],
      [
        "güven",
        "lik"
      ],
      [
        "or",
        "y"
      ],
      [
        "kat",
        "e"
      ],
      [
        "k",
        "ları"
      ],
      [
        "s",
        "ki"
      ],
      [
        "yayın",
        "landı"
      ],
      [
        "v",
        "el"
      ],
      [
        "yaz",
        "ılım"
      ],
      [
        "film",
        "in"
      ],
      [
        "gerçek",
        "leş"
      ],
      [
        "güm",
        "üş"
      ],
      [
        "ya",
        "sı"
      ],
      [
        "çev",
        "ir"
      ],
      [
        "yap",
        "ıldı"
      ],
      [
        "üy",
        "le"
      ],
      [
        "v",
        "iç"
      ],
      [
        "neden",
        "le"
      ],
      [
        "tay",
        "dı"
      ],
      [
        "kır",
        "mı"
      ],
      [
        "k",
        "eti"
      ],
      [
        "has",
        "talık"
      ],
      [
        "alar",
        "da"
      ],
      [
        "al",
        "a"
      ],
      [
        "komut",
        "an"
      ],
      [
        "öğret",
        "men"
      ],
      [
        "an",
        "ti"
      ],
      [
        "kullan",
        "ım"
      ],
      [
        "köy",
        "ün"
      ],
      [
        "ur",
        "a"
      ],
      [
        "p",
        "ri"
      ],
      [
        "ara",
        "ya"
      ],
      [
        "b",
        "os"
      ],
      [
        "ön",
        "er"
      ],
      [
        "y",
        "urt"
      ],
      [
        "mec",
        "lis"
      ],
      [
        "baş",
        "bakan"
      ],
      [
        "b",
        "us"
      ],
      [
        "yazar",
        "ları"
      ],
      [
        "alar",
        "ak"
      ],
      [
        "og",
        "raf"
      ],
      [
        "le",
        "şti"
      ],
      [
        "g",
        "es"
      ],
      [
        "e",
        "j"
      ],
      [
        "6",
        "7"
      ],
      [
        "yaşam",
        "ı"
      ],
      [
        "yayın",
        "lanan"
      ],
      [
        "z",
        "o"
      ],
      [
        "4",
        "9"
      ],
      [
        "devlet",
        "i"
      ],
      [
        "i̇",
        "st"
      ],
      [
        "ok",
        "u"
      ],
      [
        "ik",
        "en"
      ],
      [
        "mu",
        "ham"
      ],
      [
        "lığ",
        "ına"
      ],
      [
        "mak",
        "ta"
      ],
      [
        "fes",
        "tiv"
      ],
      [
        "ver",
        "ir"
      ],
      [
        "f",
        "l"
      ],
      [
        "tarih",
        "li"
      ],
      [
        "ist",
        "ler"
      ],
      [
        "oyn",
        "am"
      ],
      [
        "5",
        "8"
      ],
      [
        "it",
        "al"
      ],
      [
        "win",
        "dows"
      ],
      [
        "194",
        "5"
      ],
      [
        "sonr",
        "ası"
      ],
      [
        "festiv",
        "ali"
      ],
      [
        "türü",
        "dür"
      ],
      [
[...]
